<pad>	0
<unk>	0
<s>	0
</s>	0
<eos>	0
<patient>	0
<doctor>	0
▁a	-0
▁t	-1
in	-2
he	-3
▁s	-4
on	-5
re	-6
▁c	-7
er	-8
ou	-9
▁b	-10
▁w	-11
▁i	-12
ha	-13
▁an	-14
▁m	-15
or	-16
▁f	-17
▁d	-18
▁p	-19
▁the	-20
ti	-21
en	-22
es	-23
ing	-24
▁and	-25
ed	-26
▁to	-27
▁o	-28
▁I	-29
al	-30
▁in	-31
▁n	-32
▁l	-33
▁ha	-34
▁y	-35
an	-36
om	-37
ve	-38
at	-39
st	-40
▁you	-41
▁of	-42
it	-43
▁is	-44
le	-45
ar	-46
ll	-47
▁g	-48
▁be	-49
se	-50
tion	-51
ot	-52
ic	-53
▁re	-54
▁for	-55
ain	-56
▁he	-57
ld	-58
▁e	-59
ow	-60
ac	-61
ly	-62
hat	-63
ay	-64
▁it	-65
ro	-66
ent	-67
▁u	-68
as	-69
et	-70
id	-71
▁my	-72
▁on	-73
▁have	-74
gh	-75
▁pain	-76
is	-77
▁st	-78
ke	-79
ur	-80
▁can	-81
▁T	-82
ver	-83
ould	-84
ec	-85
ee	-86
ith	-87
▁do	-88
us	-89
ul	-90
▁with	-91
▁your	-92
▁or	-93
od	-94
ut	-95
ation	-96
▁con	-97
▁ca	-98
ri	-99
ter	-100
..	-101
am	-102
ad	-103
▁S	-104
▁that	-105
lo	-106
▁su	-107
▁A	-108
out	-109
est	-110
ght	-111
▁not	-112
▁li	-113
▁h	-114
▁W	-115
▁ts	-116
▁as	-117
mp	-118
ng	-119
os	-120
nd	-121
ch	-122
▁are	-123
▁di	-124
her	-125
ill	-126
▁ta	-127
reat	-128
▁M	-129
ment	-130
ble	-131
ls	-132
▁ne	-133
ome	-134
▁le	-135
pp	-136
ce	-137
qu	-138
▁pro	-139
▁r	-140
▁ab	-141
▁ex	-142
▁H	-143
th	-144
ct	-145
ack	-146
▁has	-147
ine	-148
▁sh	-149
si	-150
um	-151
op	-152
▁but	-153
ol	-154
▁was	-155
res	-156
▁fr	-157
ess	-158
▁treat	-159
▁k	-160
▁get	-161
▁fe	-162
ge	-163
▁we	-164
ast	-165
han	-166
ue	-167
▁had	-168
▁sp	-169
▁day	-170
▁1	-171
▁C	-172
gg	-173
one	-174
▁like	-175
▁me	-176
tic	-177
▁any	-178
▁will	-179
▁v	-180
ir	-181
ff	-182
▁am	-183
▁if	-184
ear	-185
▁back	-186
im	-187
ight	-188
ore	-189
use	-190
▁at	-191
lp	-192
▁D	-193
▁th	-194
ks	-195
▁help	-196
▁What	-197
▁2	-198
lso	-199
▁all	-200
▁go	-201
▁com	-202
▁from	-203
▁inf	-204
▁P	-205
ult	-206
hen	-207
fter	-208
ure	-209
▁sy	-210
cer	-211
ase	-212
▁no	-213
very	-214
▁should	-215
▁qu	-216
▁caus	-217
ctor	-218
hy	-219
▁her	-220
▁j	-221
ally	-222
▁treatment	-223
ate	-224
il	-225
king	-226
ide	-227
ggest	-228
edic	-229
▁so	-230
art	-231
▁wor	-232
▁some	-233
▁there	-234
tom	-235
▁also	-236
ab	-237
▁year	-238
end	-239
▁may	-240
ap	-241
▁after	-242
▁been	-243
▁se	-244
▁blo	-245
▁need	-246
ving	-247
▁tim	-248
▁(	-249
gn	-250
ell	-251
mal	-252
ther	-253
▁B	-254
▁ad	-255
▁doctor	-256
ts	-257
sult	-258
ated	-259
▁she	-260
▁.	-261
▁take	-262
▁fo	-263
ong	-264
ep	-265
ust	-266
▁The	-267
ry	-268
▁blood	-269
▁fee	-270
mptom	-271
▁medic	-272
▁ac	-273
▁kn	-274
▁by	-275
ough	-276
ost	-277
ft	-278
▁wch	-279
▁would	-280
▁symptom	-281
li	-282
You	-283
▁ri	-284
and	-285
ection	-286
ery	-287
▁now	-288
▁sw	-289
ant	-290
▁al	-291
▁3	-292
▁out	-293
red	-294
▁up	-295
▁when	-296
▁then	-297
▁mon	-298
▁per	-299
▁see	-300
▁due	-301
ound	-302
▁days	-303
▁what	-304
erg	-305
▁,	-306
▁old	-307
▁low	-308
▁could	-309
▁It	-310
▁ag	-311
▁about	-312
blem	-313
ist	-314
▁problem	-315
▁My	-316
ru	-317
▁dis	-318
▁causes	-319
▁che	-320
▁symptoms	-321
▁gi	-322
▁sur	-323
dom	-324
▁N	-325
▁month	-326
ical	-327
per	-328
▁wee	-329
▁ar	-330
oth	-331
▁feel	-332
▁cause	-333
te	-334
▁F	-335
▁very	-336
▁us	-337
▁anti	-338
▁pres	-339
▁having	-340
▁right	-341
▁comp	-342
▁infection	-343
our	-344
ati	-345
ness	-346
▁de	-347
oc	-348
ort	-349
▁rec	-350
▁time	-351
ven	-352
ion	-353
nt	-354
▁test	-355
ting	-356
▁You	-357
▁O	-358
▁app	-359
lease	-360
▁und	-361
mo	-362
estion	-363
▁Than	-364
ous	-365
▁side	-366
act	-367
▁start	-368
tis	-369
di	-370
▁cont	-371
▁sc	-372
other	-373
ice	-374
▁suggest	-375
▁consult	-376
un	-377
▁adv	-378
ormal	-379
amin	-380
▁just	-381
▁5	-382
▁tw	-383
ia	-384
ope	-385
▁left	-386
▁L	-387
▁abdom	-388
▁years	-389
▁4	-390
▁te	-391
▁more	-392
...	-393
▁other	-394
▁If	-395
ory	-396
oo	-397
▁Su	-398
oid	-399
▁br	-400
lu	-401
▁E	-402
▁pos	-403
▁allerg	-404
log	-405
ind	-406
ause	-407
▁under	-408
▁cancer	-409
el	-410
▁done	-411
▁fever	-412
ise	-413
age	-414
inal	-415
▁pl	-416
▁lower	-417
ra	-418
all	-419
own	-420
▁disc	-421
ity	-422
ach	-423
ful	-424
▁bec	-425
▁head	-426
ck	-427
gnos	-428
▁than	-429
io	-430
▁leg	-431
ake	-432
usc	-433
▁normal	-434
▁last	-435
ect	-436
▁dia	-437
▁one	-438
ater	-439
▁does	-440
▁cl	-441
▁cld	-442
▁sti	-443
ici	-444
▁He	-445
▁surg	-446
ning	-447
▁R	-448
▁red	-449
▁G	-450
▁co	-451
▁over	-452
▁da	-453
▁tooth	-454
▁musc	-455
▁un	-456
▁Suggest	-457
ms	-458
ince	-459
ho	-460
day	-461
ations	-462
▁mo	-463
▁months	-464
▁ago	-465
▁bet	-466
if	-467
sw	-468
▁phy	-469
▁inc	-470
▁diagnos	-471
▁pre	-472
▁concer	-473
▁question	-474
umb	-475
iz	-476
▁only	-477
ary	-478
▁know	-479
▁concern	-480
lie	-481
elling	-482
▁answ	-483
tive	-484
▁ur	-485
ers	-486
RI	-487
vere	-488
▁thr	-489
▁cou	-490
iotic	-491
▁possi	-492
able	-493
biotic	-494
ily	-495
▁rel	-496
apy	-497
▁-	-498
▁inj	-499
▁heal	-500
tr	-501
ering	-502
▁Do	-503
▁sa	-504
ies	-505
ma	-506
ular	-507
▁imp	-508
▁stom	-509
▁Is	-510
▁surgery	-511
ond	-512
▁severe	-513
med	-514
▁nec	-515
00	-516
▁still	-517
les	-518
▁6	-519
ves	-520
ating	-521
me	-522
enti	-523
▁&	-524
▁loo	-525
▁int	-526
sion	-527
▁rep	-528
enc	-529
dition	-530
▁swelling	-531
▁stomach	-532
▁relie	-533
▁tn	-534
ont	-535
▁mu	-536
▁because	-537
▁taking	-538
eth	-539
▁down	-540
▁use	-541
▁give	-542
▁area	-543
▁query	-544
▁suff	-545
▁food	-546
▁weeks	-547
▁man	-548
ps	-549
ump	-550
▁gr	-551
▁these	-552
▁too	-553
ved	-554
▁antibiotic	-555
oin	-556
▁op	-557
cri	-558
ame	-559
▁hur	-560
outh	-561
▁ner	-562
▁How	-563
ens	-564
logist	-565
way	-566
▁leve	-567
iting	-568
▁week	-569
▁Ts	-570
ite	-571
ace	-572
▁its	-573
▁tr	-574
▁MRI	-575
▁In	-576
▁U	-577
ak	-578
▁since	-579
▁mouth	-580
ord	-581
▁well	-582
▁Thanks	-583
▁good	-584
val	-585
mon	-586
▁times	-587
yp	-588
▁whe	-589
llow	-590
ody	-591
ually	-592
erc	-593
▁few	-594
ial	-595
void	-596
▁might	-597
▁teeth	-598
▁two	-599
▁every	-600
hes	-601
▁im	-602
▁got	-603
▁gh	-604
▁started	-605
ne	-606
▁si	-607
▁phys	-608
ull	-609
fore	-610
▁long	-611
ree	-612
▁She	-613
▁through	-614
▁ear	-615
▁dise	-616
▁worry	-617
▁abdomen	-618
▁follow	-619
▁body	-620
▁eff	-621
▁story	-622
ician	-623
lam	-624
itt	-625
▁such	-626
ass	-627
▁better	-628
leep	-629
▁night	-630
irst	-631
cc	-632
▁condition	-633
uro	-634
omet	-635
ction	-636
▁diff	-637
▁neck	-638
ious	-639
▁examin	-640
oll	-641
▁tnk	-642
▁bl	-643
).	-644
bs	-645
▁10	-646
▁ul	-647
▁cha	-648
▁requ	-649
kin	-650
▁happ	-651
▁knee	-652
▁dr	-653
ason	-654
▁muscle	-655
▁did	-656
ron	-657
▁bab	-658
▁Thank	-659
ress	-660
▁wle	-661
▁ro	-662
▁gum	-663
▁even	-664
▁reg	-665
▁getting	-666
mation	-667
▁much	-668
ever	-669
▁cough	-670
tng	-671
ried	-672
▁water	-673
▁kid	-674
▁before	-675
▁case	-676
▁hand	-677
▁breat	-678
▁disease	-679
▁son	-680
fe	-681
▁remo	-682
▁nerve	-683
tc	-684
ray	-685
▁sleep	-686
▁cold	-687
▁requi	-688
ently	-689
urther	-690
ple	-691
▁ser	-692
▁press	-693
▁again	-694
lf	-695
▁numb	-696
▁most	-697
▁hour	-698
crib	-699
▁An	-700
▁exerc	-701
▁abdominal	-702
▁Please	-703
sp	-704
▁going	-705
▁answer	-706
ance	-707
▁please	-708
▁baby	-709
▁cons	-710
har	-711
▁post	-712
ollen	-713
pper	-714
▁possible	-715
ag	-716
oint	-717
▁spine	-718
▁comple	-719
▁brain	-720
▁how	-721
em	-722
are	-723
▁seems	-724
▁wal	-725
up	-726
▁feeling	-727
▁don	-728
▁hy	-729
▁bad	-730
ometng	-731
▁vom	-732
▁related	-733
▁around	-734
mes	-735
come	-736
ave	-737
ER	-738
▁har	-739
▁sometng	-740
mall	-741
ury	-742
ugh	-743
▁acc	-744
▁suffering	-745
....	-746
▁weight	-747
▁scan	-748
▁age	-749
ken	-750
▁vis	-751
▁who	-752
▁ve	-753
ative	-754
atient	-755
▁find	-756
stand	-757
▁health	-758
▁show	-759
rug	-760
▁men	-761
▁check	-762
ere	-763
▁went	-764
IN	-765
entist	-766
ten	-767
▁first	-768
▁sto	-769
ughter	-770
uring	-771
▁incre	-772
de	-773
▁really	-774
▁care	-775
▁said	-776
▁relief	-777
action	-778
▁swollen	-779
▁diagnosis	-780
▁small	-781
▁same	-782
itis	-783
▁?	-784
▁occ	-785
▁upper	-786
▁pr	-787
▁col	-788
▁min	-789
▁work	-790
▁drug	-791
▁medicine	-792
▁medication	-793
▁patient	-794
▁cr	-795
sist	-796
anc	-797
▁say	-798
▁supp	-799
▁7	-800
▁advise	-801
▁further	-802
▁Can	-803
▁pressure	-804
times	-805
▁chang	-806
▁par	-807
▁tng	-808
▁tests	-809
▁ke	-810
▁given	-811
▁daughter	-812
ose	-813
▁problems	-814
▁neuro	-815
▁allergy	-816
▁car	-817
▁typ	-818
▁injury	-819
▁mor	-820
▁en	-821
eding	-822
▁skin	-823
▁proper	-824
▁antibiotics	-825
▁mi	-826
▁dentist	-827
▁understand	-828
ised	-829
otherapy	-830
▁ey	-831
ling	-832
▁inflam	-833
▁x	-834
tig	-835
▁daily	-836
ax	-837
▁off	-838
▁ass	-839
ard	-840
ittle	-841
ital	-842
mat	-843
ener	-844
▁result	-845
ific	-846
▁examination	-847
▁bone	-848
▁sit	-849
▁ther	-850
▁chest	-851
▁try	-852
▁redu	-853
ines	-854
▁bre	-855
ache	-856
▁lot	-857
geon	-858
▁avoid	-859
ick	-860
▁rad	-861
▁peri	-862
▁As	-863
▁sore	-864
▁sl	-865
▁little	-866
arr	-867
▁contin	-868
▁ch	-869
lain	-870
gr	-871
omm	-872
ected	-873
▁rest	-874
▁cle	-875
▁using	-876
valu	-877
▁ast	-878
▁ind	-879
ures	-880
▁flu	-881
▁painful	-882
osis	-883
hma	-884
▁oral	-885
ule	-886
▁complete	-887
ased	-888
▁hard	-889
▁past	-890
▁move	-891
▁evalu	-892
osp	-893
▁exp	-894
ommend	-895
▁exper	-896
▁ble	-897
▁spec	-898
▁causing	-899
▁etc	-900
▁dec	-901
▁reason	-902
▁morning	-903
ges	-904
▁But	-905
▁them	-906
▁wr	-907
▁vir	-908
▁cer	-909
If	-910
▁thro	-911
ered	-912
▁anytng	-913
▁common	-914
▁recommend	-915
▁fi	-916
▁bi	-917
ologist	-918
▁Y	-919
▁V	-920
▁level	-921
▁bur	-922
▁legs	-923
▁diet	-924
▁cal	-925
▁8	-926
▁during	-927
The	-928
▁det	-929
▁many	-930
▁along	-931
tain	-932
▁prescrib	-933
ail	-934
itamin	-935
▁treated	-936
ove	-937
rs	-938
▁keep	-939
▁nose	-940
▁sal	-941
▁taken	-942
read	-943
ises	-944
▁def	-945
vi	-946
▁both	-947
▁helpful	-948
▁ins	-949
▁So	-950
orm	-951
oma	-952
ency	-953
Hope	-954
▁clin	-955
ci	-956
▁vomiting	-957
bil	-958
lop	-959
▁allergic	-960
ric	-961
fen	-962
▁effec	-963
▁asthma	-964
▁diagnosed	-965
▁hope	-966
ung	-967
▁gone	-968
ub	-969
▁best	-970
▁loc	-971
▁urine	-972
▁sign	-973
▁where	-974
▁want	-975
▁ly	-976
der	-977
▁Hope	-978
we	-979
▁once	-980
▁experi	-981
vestig	-982
▁foot	-983
▁feels	-984
▁mean	-985
ren	-986
ases	-987
▁el	-988
▁po	-989
▁therapy	-990
iat	-991
mg	-992
▁cy	-993
▁hours	-994
▁arm	-995
aw	-996
▁sens	-997
▁sure	-998
rop	-999
▁impro	-1000
▁throat	-1001
hed	-1002
▁mention	-1003
▁conf	-1004
▁K	-1005
▁investig	-1006
▁ultr	-1007
sy	-1008
▁told	-1009
▁mil	-1010
ON	-1011
zz	-1012
▁put	-1013
▁count	-1014
▁deve	-1015
▁advice	-1016
▁lump	-1017
▁happen	-1018
▁usually	-1019
▁stre	-1020
ral	-1021
▁notng	-1022
its	-1023
iss	-1024
arm	-1025
▁20	-1026
▁heart	-1027
▁run	-1028
ospital	-1029
YY	-1030
ments	-1031
▁part	-1032
▁period	-1033
▁For	-1034
av	-1035
▁eat	-1036
▁dep	-1037
▁today	-1038
▁anal	-1039
▁medicines	-1040
ced	-1041
ash	-1042
▁ep	-1043
▁without	-1044
fort	-1045
▁rule	-1046
ence	-1047
ression	-1048
▁Also	-1049
▁ext	-1050
▁surgeon	-1051
▁shoulder	-1052
▁lead	-1053
▁exc	-1054
asound	-1055
cng	-1056
▁make	-1057
▁inter	-1058
▁type	-1059
▁temp	-1060
▁AN	-1061
??	-1062
▁were	-1063
▁fl	-1064
hould	-1065
hal	-1066
▁sec	-1067
▁table	-1068
▁hurts	-1069
▁los	-1070
ester	-1071
▁contro	-1072
ues	-1073
▁twice	-1074
▁physician	-1075
▁J	-1076
▁sometimes	-1077
▁bru	-1078
▁mg	-1079
▁numbness	-1080
ade	-1081
▁Any	-1082
▁away	-1083
ots	-1084
▁cor	-1085
▁met	-1086
▁viral	-1087
▁kind	-1088
▁breast	-1089
ink	-1090
▁into	-1091
▁occur	-1092
ately	-1093
▁develop	-1094
▁way	-1095
▁being	-1096
▁used	-1097
▁stu	-1098
iness	-1099
▁visit	-1100
▁three	-1101
▁milk	-1102
elcome	-1103
ongue	-1104
▁found	-1105
▁There	-1106
▁resp	-1107
▁Doctor	-1108
ritis	-1109
ES	-1110
▁ank	-1111
▁hospital	-1112
▁indic	-1113
▁caused	-1114
▁dizz	-1115
▁stool	-1116
cop	-1117
▁levels	-1118
▁tum	-1119
▁bleeding	-1120
▁cell	-1121
▁tongue	-1122
▁str	-1123
EN	-1124
xt	-1125
▁Dr	-1126
▁end	-1127
▁worried	-1128
tiv	-1129
▁Welcome	-1130
dd	-1131
▁needs	-1132
co	-1133
▁gums	-1134
lt	-1135
▁come	-1136
▁diffic	-1137
TI	-1138
▁persist	-1139
ish	-1140
▁notic	-1141
ourse	-1142
ste	-1143
▁remed	-1144
most	-1145
ways	-1146
ather	-1147
▁wte	-1148
▁stop	-1149
inion	-1150
▁physical	-1151
▁regular	-1152
▁iss	-1153
▁X	-1154
▁exercises	-1155
ediat	-1156
ute	-1157
pt	-1158
rect	-1159
▁walk	-1160
▁weak	-1161
▁above	-1162
▁opinion	-1163
▁recently	-1164
▁worse	-1165
▁mild	-1166
▁aff	-1167
iated	-1168
▁removed	-1169
▁helps	-1170
▁seiz	-1171
▁fluid	-1172
▁prescribed	-1173
gesic	-1174
ought	-1175
▁cure	-1176
▁complain	-1177
ene	-1178
▁des	-1179
▁ask	-1180
▁loss	-1181
▁second	-1182
▁read	-1183
▁sensation	-1184
▁call	-1185
▁ele	-1186
rom	-1187
▁hot	-1188
▁TH	-1189
▁fine	-1190
vent	-1191
▁ultrasound	-1192
iti	-1193
ording	-1194
▁Should	-1195
2.	-1196
arg	-1197
sive	-1198
▁lymp	-1199
▁present	-1200
▁difficult	-1201
less	-1202
▁clinical	-1203
▁9	-1204
ney	-1205
▁orth	-1206
ins	-1207
OR	-1208
atic	-1209
requ	-1210
▁feet	-1211
▁ti	-1212
▁sugg	-1213
ronic	-1214
pped	-1215
▁gast	-1216
▁diab	-1217
▁15	-1218
ably	-1219
▁wa	-1220
▁prob	-1221
▁concerned	-1222
▁posi	-1223
▁noticed	-1224
▁look	-1225
▁pains	-1226
bin	-1227
▁bed	-1228
▁root	-1229
▁pass	-1230
▁course	-1231
▁bend	-1232
ty	-1233
▁report	-1234
til	-1235
▁headache	-1236
▁sever	-1237
▁joint	-1238
▁took	-1239
▁muscles	-1240
▁bit	-1241
▁later	-1242
▁mal	-1243
▁reco	-1244
ile	-1245
ual	-1246
▁pat	-1247
▁hurt	-1248
▁experienc	-1249
▁tell	-1250
urn	-1251
ween	-1252
▁es	-1253
▁home	-1254
mb	-1255
ors	-1256
ole	-1257
esterday	-1258
self	-1259
▁doesn	-1260
▁radi	-1261
▁Your	-1262
▁extr	-1263
cess	-1264
▁required	-1265
▁shar	-1266
▁tend	-1267
▁CT	-1268
Than	-1269
du	-1270
▁Now	-1271
▁face	-1272
▁answered	-1273
▁frequ	-1274
▁We	-1275
▁gu	-1276
onsult	-1277
roid	-1278
▁medications	-1279
▁differe	-1280
▁between	-1281
▁almost	-1282
▁bump	-1283
ward	-1284
OU	-1285
AN	-1286
▁diarr	-1287
▁liver	-1288
▁physi	-1289
unction	-1290
▁att	-1291
▁analgesic	-1292
1.	-1293
▁vitamin	-1294
▁always	-1295
▁breath	-1296
▁drugs	-1297
son	-1298
▁ref	-1299
▁prot	-1300
▁doing	-1301
▁confir	-1302
usion	-1303
▁jaw	-1304
dr	-1305
▁ir	-1306
▁able	-1307
▁fing	-1308
▁seen	-1309
▁felt	-1310
▁effects	-1311
▁lymph	-1312
▁fract	-1313
▁kidney	-1314
▁remedy	-1315
▁top	-1316
not	-1317
▁tou	-1318
▁cur	-1319
acet	-1320
▁reduce	-1321
tions	-1322
▁stand	-1323
▁next	-1324
lic	-1325
pec	-1326
▁according	-1327
mun	-1328
vical	-1329
▁Could	-1330
▁slight	-1331
ize	-1332
▁mentioned	-1333
▁doctors	-1334
▁main	-1335
▁breatng	-1336
▁improve	-1337
▁sol	-1338
▁inclu	-1339
gar	-1340
▁chronic	-1341
▁local	-1342
▁dose	-1343
stant	-1344
▁ankle	-1345
▁another	-1346
▁never	-1347
erm	-1348
▁tiss	-1349
matory	-1350
▁acid	-1351
▁seem	-1352
▁No	-1353
▁inflammation	-1354
get	-1355
als	-1356
ox	-1357
▁special	-1358
▁spinal	-1359
▁tra	-1360
▁warm	-1361
omfort	-1362
It	-1363
▁assoc	-1364
▁ster	-1365
rit	-1366
rent	-1367
▁control	-1368
▁ting	-1369
ants	-1370
▁smo	-1371
▁nause	-1372
but	-1373
▁possibil	-1374
ian	-1375
AT	-1376
▁serious	-1377
eep	-1378
▁sharp	-1379
▁gener	-1380
ED	-1381
copy	-1382
▁life	-1383
▁wis	-1384
low	-1385
▁sn	-1386
▁lung	-1387
ys	-1388
AL	-1389
▁burning	-1390
▁12	-1391
▁urin	-1392
▁abs	-1393
▁giving	-1394
▁cyst	-1395
),	-1396
.5	-1397
▁mid	-1398
▁near	-1399
▁eye	-1400
▁fall	-1401
▁came	-1402
aking	-1403
be	-1404
▁eating	-1405
▁dont	-1406
▁must	-1407
▁import	-1408
▁medical	-1409
▁sha	-1410
▁thanks	-1411
zing	-1412
▁associated	-1413
▁fracture	-1414
▁Ne	-1415
▁cram	-1416
▁yesterday	-1417
▁pediat	-1418
▁On	-1419
▁require	-1420
apist	-1421
odes	-1422
▁continue	-1423
▁soft	-1424
▁pus	-1425
▁reaction	-1426
▁clo	-1427
3.	-1428
cus	-1429
▁thought	-1430
▁form	-1431
▁AND	-1432
▁cervical	-1433
▁wisdom	-1434
hea	-1435
▁rash	-1436
rician	-1437
▁sugar	-1438
▁needed	-1439
▁bow	-1440
dden	-1441
owing	-1442
▁When	-1443
▁exercise	-1444
▁following	-1445
ption	-1446
amol	-1447
ros	-1448
▁important	-1449
▁couple	-1450
▁here	-1451
ature	-1452
▁gl	-1453
▁stage	-1454
ither	-1455
male	-1456
▁disord	-1457
▁orthop	-1458
▁advised	-1459
▁less	-1460
AS	-1461
▁likely	-1462
ath	-1463
▁med	-1464
asal	-1465
▁gets	-1466
▁And	-1467
▁Phy	-1468
▁dam	-1469
▁injection	-1470
▁apply	-1471
ially	-1472
▁Take	-1473
tivity	-1474
▁goes	-1475
▁probably	-1476
inus	-1477
amine	-1478
▁ob	-1479
▁discus	-1480
▁bot	-1481
▁inside	-1482
▁appear	-1483
▁constant	-1484
▁results	-1485
▁dent	-1486
▁ver	-1487
og	-1488
▁relax	-1489
cin	-1490
In	-1491
▁hands	-1492
eries	-1493
▁Have	-1494
▁mul	-1495
yl	-1496
ural	-1497
▁pal	-1498
▁hern	-1499
▁stress	-1500
▁/	-1501
▁eyes	-1502
▁clear	-1503
▁comes	-1504
▁inv	-1505
▁canal	-1506
rist	-1507
▁TO	-1508
▁called	-1509
▁lumb	-1510
▁yrs	-1511
▁free	-1512
▁sudden	-1513
ign	-1514
▁function	-1515
athy	-1516
▁chem	-1517
▁prov	-1518
▁mother	-1519
▁manage	-1520
arge	-1521
▁says	-1522
▁pregn	-1523
▁ide	-1524
▁compression	-1525
amily	-1526
band	-1527
▁front	-1528
adder	-1529
nal	-1530
▁dou	-1531
ings	-1532
▁walking	-1533
tip	-1534
thritis	-1535
▁spas	-1536
▁heav	-1537
12	-1538
ically	-1539
▁inhal	-1540
▁fact	-1541
usband	-1542
▁depend	-1543
▁sm	-1544
ancy	-1545
reen	-1546
ode	-1547
▁tri	-1548
▁tngs	-1549
etes	-1550
▁extre	-1551
▁asking	-1552
▁full	-1553
▁soon	-1554
▁supple	-1555
▁After	-1556
▁female	-1557
▁tingling	-1558
ones	-1559
my	-1560
▁steroid	-1561
az	-1562
▁wond	-1563
▁looks	-1564
▁loose	-1565
rup	-1566
acter	-1567
▁ulcer	-1568
▁specialist	-1569
▁pe	-1570
▁dry	-1571
▁light	-1572
▁However	-1573
ared	-1574
ang	-1575
▁ing	-1576
▁evaluated	-1577
▁experiencing	-1578
▁changes	-1579
ans	-1580
▁husband	-1581
▁perf	-1582
ai	-1583
▁safe	-1584
▁nausea	-1585
▁diarrhea	-1586
▁effect	-1587
the	-1588
▁tissue	-1589
▁several	-1590
▁IN	-1591
▁suggestion	-1592
oscopy	-1593
▁sinus	-1594
ive	-1595
▁chan	-1596
TH	-1597
▁increase	-1598
▁dizziness	-1599
grap	-1600
▁spread	-1601
bup	-1602
ution	-1603
▁different	-1604
enter	-1605
ensi	-1606
▁else	-1607
esion	-1608
▁'	-1609
air	-1610
logy	-1611
▁new	-1612
ces	-1613
▁why	-1614
ided	-1615
ates	-1616
▁size	-1617
medi	-1618
ools	-1619
rofen	-1620
ormation	-1621
As	-1622
eti	-1623
ark	-1624
▁ache	-1625
▁until	-1626
ip	-1627
ner	-1628
▁clar	-1629
▁either	-1630
iet	-1631
▁wrong	-1632
▁let	-1633
▁gave	-1634
acetamol	-1635
AR	-1636
▁fib	-1637
stru	-1638
ING	-1639
▁lesion	-1640
ides	-1641
▁ill	-1642
▁Some	-1643
▁below	-1644
▁bo	-1645
▁short	-1646
▁contact	-1647
▁prevent	-1648
▁recur	-1649
▁clean	-1650
▁stools	-1651
ig	-1652
▁healthy	-1653
▁consulting	-1654
▁thank	-1655
ream	-1656
ident	-1657
▁evaluation	-1658
utes	-1659
Take	-1660
chy	-1661
▁All	-1662
buprofen	-1663
▁bowel	-1664
▁region	-1665
▁allergies	-1666
▁neurologist	-1667
LL	-1668
int	-1669
▁ok	-1670
▁deg	-1671
▁extraction	-1672
▁dro	-1673
▁irrit	-1674
no	-1675
▁sound	-1676
▁change	-1677
▁oper	-1678
▁quite	-1679
▁checked	-1680
emia	-1681
▁cannot	-1682
▁extreme	-1683
▁active	-1684
vice	-1685
▁touch	-1686
opsy	-1687
▁immun	-1688
▁immedi	-1689
cription	-1690
▁produ	-1691
to	-1692
▁half	-1693
Thanks	-1694
▁possibility	-1695
kes	-1696
pecially	-1697
▁patients	-1698
▁foods	-1699
▁wel	-1700
normal	-1701
time	-1702
▁wit	-1703
▁hyper	-1704
▁Since	-1705
▁Consult	-1706
▁res	-1707
4.	-1708
▁necess	-1709
▁act	-1710
logical	-1711
▁epis	-1712
▁non	-1713
▁constip	-1714
▁minutes	-1715
▁nasal	-1716
▁invol	-1717
▁sitting	-1718
▁tare	-1719
▁recovery	-1720
▁doub	-1721
▁early	-1722
orts	-1723
▁investigations	-1724
▁ray	-1725
▁defici	-1726
▁family	-1727
aches	-1728
ready	-1729
▁Does	-1730
▁accordingly	-1731
ening	-1732
▁tumor	-1733
▁attack	-1734
▁sub	-1735
ior	-1736
▁lift	-1737
▁tired	-1738
▁cases	-1739
▁discomfort	-1740
▁wo	-1741
▁tablet	-1742
▁issues	-1743
▁play	-1744
▁Pain	-1745
▁thy	-1746
▁sick	-1747
▁management	-1748
▁often	-1749
▁weakness	-1750
▁questions	-1751
▁plate	-1752
▁till	-1753
▁already	-1754
mor	-1755
▁pediatrician	-1756
▁bro	-1757
▁100	-1758
▁fell	-1759
▁arms	-1760
--	-1761
▁mass	-1762
▁subs	-1763
▁drink	-1764
▁information	-1765
▁plan	-1766
you	-1767
OM	-1768
▁coming	-1769
▁heavy	-1770
▁diabetes	-1771
▁queries	-1772
▁dist	-1773
▁iron	-1774
▁tried	-1775
▁conditions	-1776
let	-1777
▁cldren	-1778
ising	-1779
▁add	-1780
▁lip	-1781
▁completely	-1782
▁seizures	-1783
▁tab	-1784
▁damage	-1785
▁..	-1786
▁rib	-1787
stem	-1788
▁saline	-1789
▁relieve	-1790
▁streng	-1791
ange	-1792
▁bul	-1793
▁especially	-1794
▁lo	-1795
▁chee	-1796
▁kill	-1797
dle	-1798
▁underg	-1799
▁welcome	-1800
RE	-1801
LE	-1802
can	-1803
▁large	-1804
▁tgh	-1805
▁biopsy	-1806
BC	-1807
▁writing	-1808
▁pill	-1809
▁itcng	-1810
▁person	-1811
▁developed	-1812
▁unc	-1813
▁butt	-1814
mple	-1815
▁clarific	-1816
▁syrup	-1817
▁treating	-1818
aining	-1819
▁witn	-1820
▁whether	-1821
ler	-1822
ndr	-1823
▁cells	-1824
▁deep	-1825
▁position	-1826
▁Re	-1827
▁wait	-1828
▁spot	-1829
riend	-1830
▁necessary	-1831
▁fast	-1832
▁pri	-1833
ndrome	-1834
▁bu	-1835
ID	-1836
▁fill	-1837
▁pul	-1838
▁increased	-1839
▁abnormal	-1840
▁:	-1841
▁chemotherapy	-1842
▁black	-1843
▁though	-1844
▁certain	-1845
▁indicate	-1846
elv	-1847
▁THE	-1848
▁includ	-1849
10	-1850
▁lumbar	-1851
bing	-1852
▁exact	-1853
▁sensi	-1854
▁colon	-1855
▁ton	-1856
▁wondering	-1857
atory	-1858
▁infections	-1859
▁system	-1860
gng	-1861
▁30	-1862
▁grow	-1863
▁thyroid	-1864
▁disorder	-1865
▁pull	-1866
▁green	-1867
▁clot	-1868
ring	-1869
▁general	-1870
▁arthritis	-1871
inc	-1872
▁middle	-1873
!!	-1874
▁motion	-1875
▁air	-1876
▁traum	-1877
ny	-1878
▁proced	-1879
▁drin	-1880
▁ice	-1881
▁av	-1882
mia	-1883
▁neg	-1884
inf	-1885
▁point	-1886
▁bladder	-1887
ount	-1888
iv	-1889
▁200	-1890
▁discuss	-1891
▁rate	-1892
cium	-1893
head	-1894
▁ER	-1895
▁ris	-1896
ted	-1897
▁multi	-1898
▁didn	-1899
▁shows	-1900
▁continu	-1901
▁swe	-1902
cho	-1903
▁service	-1904
▁decre	-1905
▁tight	-1906
▁wat	-1907
iety	-1908
then	-1909
▁elev	-1910
ured	-1911
oints	-1912
ium	-1913
▁tablets	-1914
tice	-1915
▁illness	-1916
▁headaches	-1917
IC	-1918
omy	-1919
▁ov	-1920
▁close	-1921
▁father	-1922
▁rem	-1923
▁deficiency	-1924
▁Avoid	-1925
▁bacter	-1926
▁difficulty	-1927
▁analgesics	-1928
▁addition	-1929
▁posting	-1930
gue	-1931
▁acute	-1932
▁var	-1933
▁turn	-1934
▁physiotherapy	-1935
▁thor	-1936
wards	-1937
gi	-1938
▁tub	-1939
▁St	-1940
▁beg	-1941
▁whole	-1942
VE	-1943
▁ma	-1944
▁bottom	-1945
▁orthopedic	-1946
old	-1947
ob	-1948
▁wrist	-1949
hol	-1950
▁doc	-1951
▁however	-1952
cal	-1953
▁constipation	-1954
tern	-1955
▁spe	-1956
▁become	-1957
lofen	-1958
▁"	-1959
▁cream	-1960
▁dos	-1961
etic	-1962
OT	-1963
rox	-1964
ew	-1965
▁''	-1966
of	-1967
ood	-1968
-3	-1969
▁anemia	-1970
▁woke	-1971
▁yr	-1972
▁Not	-1973
reatment	-1974
▁happened	-1975
▁spots	-1976
asis	-1977
enty	-1978
▁signs	-1979
▁syndrome	-1980
pl	-1981
pping	-1982
▁correct	-1983
▁finger	-1984
▁suggested	-1985
▁anx	-1986
man	-1987
▁Why	-1988
▁running	-1989
▁frequent	-1990
▁pot	-1991
▁pelv	-1992
▁cougng	-1993
▁intest	-1994
ush	-1995
▁healing	-1996
▁er	-1997
▁showed	-1998
▁confirm	-1999
Please	-2000
▁14	-2001
▁stiff	-2002
For	-2003
▁movement	-2004
ider	-2005
▁lim	-2006
ities	-2007
▁fati	-2008
▁accident	-2009
ties	-2010
vious	-2011
▁tract	-2012
ze	-2013
▁inflammatory	-2014
glo	-2015
Ts	-2016
▁slow	-2017
▁means	-2018
▁dischar	-2019
▁specific	-2020
▁temper	-2021
▁examined	-2022
rain	-2023
▁ves	-2024
au	-2025
AC	-2026
▁cramps	-2027
▁Al	-2028
▁rout	-2029
▁current	-2030
▁made	-2031
▁gastro	-2032
▁ap	-2033
▁dental	-2034
ized	-2035
▁line	-2036
ied	-2037
zine	-2038
▁block	-2039
▁affected	-2040
merg	-2041
▁garg	-2042
-4	-2043
▁1.	-2044
▁fore	-2045
▁feed	-2046
▁sleeping	-2047
▁name	-2048
▁append	-2049
rav	-2050
otherapist	-2051
orn	-2052
▁At	-2053
▁happens	-2054
wn	-2055
los	-2056
▁issue	-2057
▁stopped	-2058
uled	-2059
▁drops	-2060
ons	-2061
▁least	-2062
▁assess	-2063
etite	-2064
▁tender	-2065
ET	-2066
▁working	-2067
▁immediately	-2068
▁snee	-2069
▁combin	-2070
▁supplements	-2071
▁cant	-2072
▁enough	-2073
▁abscess	-2074
ograp	-2075
▁risk	-2076
teb	-2077
▁calcium	-2078
globin	-2079
▁HA	-2080
▁Phys	-2081
▁hyp	-2082
▁seizure	-2083
▁situ	-2084
gen	-2085
akes	-2086
▁negative	-2087
full	-2088
▁our	-2089
▁ra	-2090
▁itchy	-2091
line	-2092
▁mat	-2093
abil	-2094
▁avail	-2095
▁repl	-2096
ents	-2097
dration	-2098
▁IS	-2099
▁Had	-2100
moglobin	-2101
▁OF	-2102
▁mom	-2103
▁radiation	-2104
▁ret	-2105
/2	-2106
▁plenty	-2107
▁suggestions	-2108
▁bruise	-2109
bow	-2110
bal	-2111
▁aw	-2112
OS	-2113
▁YOU	-2114
lofenac	-2115
▁elect	-2116
ging	-2117
cohol	-2118
▁procedure	-2119
ails	-2120
▁defin	-2121
▁temperature	-2122
▁everytng	-2123
▁hurting	-2124
▁routine	-2125
▁patho	-2126
▁lay	-2127
▁z	-2128
▁removal	-2129
▁direct	-2130
che	-2131
▁xray	-2132
▁place	-2133
.2.	-2134
▁bil	-2135
ision	-2136
ches	-2137
▁cheek	-2138
▁their	-2139
ople	-2140
▁trauma	-2141
ism	-2142
ense	-2143
▁friend	-2144
▁slightly	-2145
▁appetite	-2146
▁fru	-2147
▁amount	-2148
ef	-2149
▁nerves	-2150
aring	-2151
▁appre	-2152
▁detail	-2153
▁occurs	-2154
mergency	-2155
ock	-2156
▁bron	-2157
▁strong	-2158
▁hor	-2159
ulation	-2160
▁reports	-2161
▁stro	-2162
ains	-2163
▁sus	-2164
cept	-2165
asc	-2166
olar	-2167
▁anxiety	-2168
app	-2169
▁Par	-2170
▁dizzy	-2171
▁effective	-2172
cing	-2173
▁meas	-2174
▁site	-2175
▁mod	-2176
ula	-2177
▁prol	-2178
▁eas	-2179
▁simple	-2180
CT	-2181
▁movements	-2182
gestion	-2183
ellow	-2184
▁elbow	-2185
▁tre	-2186
ashes	-2187
▁studi	-2188
▁bal	-2189
▁spasm	-2190
▁degener	-2191
▁undergo	-2192
▁ever	-2193
▁11	-2194
▁concerns	-2195
▁trying	-2196
ife	-2197
▁chemo	-2198
ticular	-2199
▁coun	-2200
have	-2201
▁explain	-2202
inflam	-2203
▁great	-2204
▁open	-2205
▁surgical	-2206
▁combination	-2207
▁25	-2208
▁quick	-2209
▁ph	-2210
▁pregnancy	-2211
▁appreci	-2212
▁starting	-2213
▁four	-2214
▁lab	-2215
▁available	-2216
▁fingers	-2217
IS	-2218
lood	-2219
▁people	-2220
So	-2221
lly	-2222
YYYY	-2223
▁fatigue	-2224
▁clarifications	-2225
like	-2226
▁hernia	-2227
▁complic	-2228
US	-2229
▁standing	-2230
essive	-2231
▁hygi	-2232
▁repe	-2233
▁joints	-2234
though	-2235
▁discharge	-2236
yc	-2237
▁big	-2238
▁looking	-2239
▁pur	-2240
▁enl	-2241
▁nut	-2242
▁reasons	-2243
▁gel	-2244
▁tear	-2245
▁cardi	-2246
▁FOR	-2247
ancre	-2248
▁multiple	-2249
▁fluids	-2250
▁trou	-2251
▁prote	-2252
dy	-2253
▁18	-2254
▁each	-2255
▁prog	-2256
▁pi	-2257
▁These	-2258
▁urinary	-2259
▁bumps	-2260
▁followed	-2261
▁24	-2262
▁takes	-2263
▁prof	-2264
▁sim	-2265
▁tal	-2266
▁describ	-2267
nce	-2268
lex	-2269
side	-2270
wise	-2271
▁excessive	-2272
asion	-2273
▁known	-2274
▁starts	-2275
ib	-2276
▁pack	-2277
▁maintain	-2278
▁intake	-2279
▁including	-2280
▁swall	-2281
▁male	-2282
kill	-2283
▁4-	-2284
▁situation	-2285
luc	-2286
▁remove	-2287
illin	-2288
▁hygiene	-2289
▁compress	-2290
▁alcohol	-2291
rin	-2292
▁fac	-2293
▁ibuprofen	-2294
▁ben	-2295
▁expos	-2296
▁properly	-2297
▁infected	-2298
,,	-2299
▁stra	-2300
▁solution	-2301
▁elevated	-2302
ml	-2303
▁Her	-2304
▁cut	-2305
acted	-2306
▁respon	-2307
raz	-2308
▁whee	-2309
▁kne	-2310
▁yellow	-2311
▁chances	-2312
▁oste	-2313
▁MY	-2314
0.	-2315
▁happy	-2316
what	-2317
▁positive	-2318
.3.	-2319
▁IT	-2320
do	-2321
▁belly	-2322
▁color	-2323
struction	-2324
▁gall	-2325
▁resol	-2326
▁activity	-2327
asing	-2328
▁dust	-2329
▁cho	-2330
▁thorough	-2331
▁sho	-2332
ontin	-2333
urgeon	-2334
▁veget	-2335
gam	-2336
mber	-2337
▁diabetic	-2338
▁emergency	-2339
▁hair	-2340
▁meds	-2341
NT	-2342
▁vomit	-2343
▁cry	-2344
▁Th	-2345
▁yet	-2346
▁bath	-2347
rizine	-2348
▁smell	-2349
▁maybe	-2350
ained	-2351
▁own	-2352
▁recommended	-2353
▁guide	-2354
▁option	-2355
▁ju	-2356
▁appears	-2357
▁lifting	-2358
SA	-2359
EL	-2360
▁mostly	-2361
▁toe	-2362
arian	-2363
▁Me	-2364
morr	-2365
▁dark	-2366
RO	-2367
▁term	-2368
▁500	-2369
▁nodes	-2370
▁Ac	-2371
fer	-2372
▁support	-2373
so	-2374
bly	-2375
▁dri	-2376
▁rid	-2377
▁conc	-2378
iratory	-2379
ina	-2380
▁16	-2381
▁prescription	-2382
▁paracetamol	-2383
jor	-2384
▁stroke	-2385
▁OR	-2386
▁Get	-2387
yn	-2388
tes	-2389
▁fat	-2390
irth	-2391
▁stay	-2392
▁episodes	-2393
▁Us	-2394
quid	-2395
▁13	-2396
▁...	-2397
ocy	-2398
▁Will	-2399
▁Are	-2400
▁leading	-2401
aid	-2402
mitt	-2403
▁Ab	-2404
▁cir	-2405
▁gland	-2406
isng	-2407
There	-2408
▁evening	-2409
▁50	-2410
ormally	-2411
▁process	-2412
▁gas	-2413
here	-2414
▁helped	-2415
▁consider	-2416
lled	-2417
▁step	-2418
aces	-2419
▁201	-2420
list	-2421
▁dull	-2422
▁2-3	-2423
indly	-2424
Do	-2425
TION	-2426
entif	-2427
▁Im	-2428
oday	-2429
entation	-2430
▁lost	-2431
▁ter	-2432
▁smoking	-2433
▁regularly	-2434
ilar	-2435
▁Sometimes	-2436
ix	-2437
▁exam	-2438
▁calf	-2439
kg	-2440
▁val	-2441
than	-2442
▁susp	-2443
▁ribs	-2444
▁knees	-2445
fully	-2446
▁doubt	-2447
inflammatory	-2448
ping	-2449
ech	-2450
▁agg	-2451
▁those	-2452
▁tempor	-2453
▁neurop	-2454
ex	-2455
right	-2456
uff	-2457
▁Ind	-2458
lux	-2459
▁)	-2460
lying	-2461
▁growth	-2462
▁feeding	-2463
▁asp	-2464
azole	-2465
▁Treatment	-2466
▁liquid	-2467
bit	-2468
she	-2469
▁Then	-2470
▁pancre	-2471
▁grand	-2472
ysis	-2473
any	-2474
tial	-2475
▁strengthen	-2476
▁details	-2477
▁pan	-2478
mm	-2479
▁cord	-2480
▁tot	-2481
▁upon	-2482
▁ligam	-2483
▁Or	-2484
▁symptomatic	-2485
wle	-2486
▁birth	-2487
aged	-2488
▁set	-2489
ropri	-2490
▁verteb	-2491
OW	-2492
▁straight	-2493
tomy	-2494
ages	-2495
▁Just	-2496
▁Neuro	-2497
▁vision	-2498
▁becom	-2499
set	-2500
AY	-2501
gia	-2502
▁earli	-2503
▁major	-2504
▁idea	-2505
▁lungs	-2506
ography	-2507
atitis	-2508
▁far	-2509
▁bones	-2510
▁molar	-2511
▁2.	-2512
▁inhaler	-2513
▁org	-2514
▁prost	-2515
▁mar	-2516
▁cult	-2517
lor	-2518
▁matter	-2519
▁replace	-2520
▁painkill	-2521
▁signific	-2522
▁perman	-2523
▁respiratory	-2524
▁yes	-2525
▁circ	-2526
▁scal	-2527
▁wors	-2528
▁ideas	-2529
ondy	-2530
▁cere	-2531
▁include	-2532
▁fin	-2533
▁rashes	-2534
▁complaining	-2535
▁drinking	-2536
▁belie	-2537
▁reduced	-2538
IT	-2539
LY	-2540
▁broken	-2541
CH	-2542
omp	-2543
▁initi	-2544
ptic	-2545
▁ruled	-2546
▁meals	-2547
▁definite	-2548
▁recover	-2549
▁real	-2550
UT	-2551
▁useful	-2552
▁hemoglobin	-2553
▁Un	-2554
▁BE	-2555
▁prescribe	-2556
enosis	-2557
ane	-2558
▁Mon	-2559
iatic	-2560
▁sneezing	-2561
▁room	-2562
▁seeing	-2563
▁ENT	-2564
▁appropri	-2565
▁Its	-2566
▁trans	-2567
▁radio	-2568
tle	-2569
ENT	-2570
▁Le	-2571
▁lips	-2572
▁itself	-2573
▁extremely	-2574
erior	-2575
▁bite	-2576
icy	-2577
ectomy	-2578
▁perform	-2579
▁WI	-2580
▁sort	-2581
gram	-2582
▁taste	-2583
▁hemat	-2584
tty	-2585
▁experience	-2586
▁Ad	-2587
uration	-2588
▁makes	-2589
▁bruising	-2590
opathy	-2591
▁scr	-2592
▁findings	-2593
▁bleed	-2594
ability	-2595
led	-2596
urg	-2597
▁passing	-2598
▁steroids	-2599
icillin	-2600
bul	-2601
tention	-2602
▁testing	-2603
▁bacterial	-2604
▁Yes	-2605
▁bene	-2606
estive	-2607
ea	-2608
par	-2609
aine	-2610
▁refer	-2611
▁suffer	-2612
▁grad	-2613
▁rather	-2614
▁40	-2615
▁BP	-2616
▁pred	-2617
▁Physi	-2618
▁stenosis	-2619
▁pretty	-2620
▁formation	-2621
▁trouble	-2622
▁culture	-2623
▁happening	-2624
▁particular	-2625
EG	-2626
▁kindly	-2627
▁appoint	-2628
OD	-2629
min	-2630
▁unable	-2631
▁based	-2632
▁persists	-2633
▁secondary	-2634
▁ES	-2635
-1	-2636
▁Most	-2637
▁Today	-2638
▁sex	-2639
▁poor	-2640
ables	-2641
▁wife	-2642
▁altern	-2643
▁Sy	-2644
vities	-2645
▁gro	-2646
▁areas	-2647
LD	-2648
▁pathology	-2649
▁pen	-2650
▁longer	-2651
▁similar	-2652
▁significant	-2653
▁reflux	-2654
▁operation	-2655
▁investigation	-2656
▁frequently	-2657
5.	-2658
▁notice	-2659
gger	-2660
▁currently	-2661
▁additional	-2662
AIN	-2663
ote	-2664
▁19	-2665
▁suggestive	-2666
opha	-2667
▁alot	-2668
enol	-2669
▁From	-2670
▁id	-2671
esthe	-2672
▁1/2	-2673
▁Pro	-2674
▁oint	-2675
▁prim	-2676
▁Rec	-2677
▁salt	-2678
▁outside	-2679
▁self	-2680
rible	-2681
▁order	-2682
▁Once	-2683
Thank	-2684
orry	-2685
chool	-2686
▁blist	-2687
psy	-2688
▁To	-2689
-2	-2690
▁injections	-2691
Your	-2692
▁looked	-2693
▁Di	-2694
▁occasion	-2695
▁killers	-2696
▁ten	-2697
ug	-2698
▁stru	-2699
▁ST	-2700
atc	-2701
▁exclu	-2702
for	-2703
▁rare	-2704
tension	-2705
▁ox	-2706
▁platelet	-2707
▁ed	-2708
▁pelvic	-2709
▁normally	-2710
▁return	-2711
▁appointment	-2712
▁improvement	-2713
▁Medic	-2714
▁nutri	-2715
▁previous	-2716
.....	-2717
▁boy	-2718
▁stone	-2719
▁gir	-2720
▁mucus	-2721
▁sac	-2722
▁grade	-2723
▁vag	-2724
▁persistent	-2725
▁depends	-2726
▁playing	-2727
ateral	-2728
▁asked	-2729
ylenol	-2730
▁fruits	-2731
▁psy	-2732
▁redness	-2733
▁irritation	-2734
.-	-2735
pe	-2736
aving	-2737
gnosis	-2738
ked	-2739
▁ESR	-2740
ister	-2741
▁infant	-2742
▁wheezing	-2743
▁coll	-2744
▁periods	-2745
▁tested	-2746
▁radiating	-2747
▁migr	-2748
▁range	-2749
▁virus	-2750
▁pulled	-2751
▁protein	-2752
▁contr	-2753
▁Well	-2754
▁saliv	-2755
▁study	-2756
▁swell	-2757
uke	-2758
▁node	-2759
olic	-2760
ergic	-2761
▁vegetables	-2762
▁ON	-2763
▁3-4	-2764
▁antist	-2765
▁degenerative	-2766
aced	-2767
▁confirmed	-2768
urb	-2769
▁Blood	-2770
▁chew	-2771
▁increasing	-2772
▁except	-2773
▁provide	-2774
mory	-2775
▁cyc	-2776
nis	-2777
▁spondy	-2778
▁pregnant	-2779
▁minor	-2780
ergy	-2781
▁epile	-2782
arged	-2783
oup	-2784
▁mic	-2785
▁cent	-2786
heum	-2787
▁First	-2788
▁school	-2789
▁stretc	-2790
▁towards	-2791
▁making	-2792
▁bulge	-2793
▁appropriate	-2794
ild	-2795
lication	-2796
ross	-2797
▁soreness	-2798
uture	-2799
▁17	-2800
vity	-2801
▁dehy	-2802
▁believe	-2803
▁App	-2804
▁cat	-2805
▁toes	-2806
▁malign	-2807
▁memory	-2808
acid	-2809
▁vit	-2810
▁lots	-2811
▁sk	-2812
▁td	-2813
But	-2814
▁indi	-2815
▁assessment	-2816
▁Ex	-2817
ending	-2818
▁kids	-2819
▁poly	-2820
▁moving	-2821
ume	-2822
▁cage	-2823
▁plus	-2824
▁TS	-2825
▁treatments	-2826
▁replacement	-2827
▁muc	-2828
cket	-2829
urs	-2830
ascular	-2831
▁congestion	-2832
dro	-2833
▁pow	-2834
iation	-2835
▁stiffness	-2836
ril	-2837
▁actually	-2838
▁sensitivity	-2839
arrow	-2840
▁With	-2841
▁serum	-2842
▁otherwise	-2843
Also	-2844
▁harm	-2845
▁groin	-2846
▁permanent	-2847
▁neur	-2848
:1.	-2849
▁Sp	-2850
anti	-2851
▁hold	-2852
▁benef	-2853
ator	-2854
▁unless	-2855
▁wear	-2856
▁possibly	-2857
▁Other	-2858
EC	-2859
▁cap	-2860
▁gastritis	-2861
▁AS	-2862
▁respond	-2863
quate	-2864
▁tck	-2865
▁Anti	-2866
▁live	-2867
▁product	-2868
▁TA	-2869
▁ears	-2870
▁affect	-2871
▁Z	-2872
▁3.	-2873
▁ps	-2874
▁spicy	-2875
▁wound	-2876
▁cavity	-2877
▁meet	-2878
▁sides	-2879
aps	-2880
▁definitely	-2881
▁CAN	-2882
▁consultation	-2883
▁del	-2884
▁Usually	-2885
▁raised	-2886
rence	-2887
ich	-2888
▁six	-2889
▁break	-2890
oids	-2891
tigo	-2892
▁inner	-2893
▁response	-2894
year	-2895
ophen	-2896
▁rece	-2897
6.	-2898
atus	-2899
▁HAVE	-2900
▁runny	-2901
cy	-2902
▁options	-2903
▁yourself	-2904
He	-2905
▁expect	-2906
▁strain	-2907
▁enlarged	-2908
icitis	-2909
▁sprain	-2910
▁chance	-2911
▁primary	-2912
▁ml	-2913
erous	-2914
▁diagn	-2915
rid	-2916
▁aches	-2917
▁duration	-2918
ie	-2919
▁wom	-2920
▁crack	-2921
ank	-2922
▁mri	-2923
▁future	-2924
▁socket	-2925
▁suffered	-2926
biotics	-2927
FT	-2928
onia	-2929
.4.	-2930
▁MD	-2931
▁diseases	-2932
ict	-2933
▁young	-2934
▁prac	-2935
OP	-2936
▁haven	-2937
anwle	-2938
▁That	-2939
▁five	-2940
erv	-2941
uck	-2942
lant	-2943
razole	-2944
▁detailed	-2945
romy	-2946
▁sciatic	-2947
by	-2948
▁appreciate	-2949
hoea	-2950
▁height	-2951
▁factors	-2952
▁ointment	-2953
▁flo	-2954
▁Last	-2955
aminophen	-2956
▁determ	-2957
▁electro	-2958
ects	-2959
iding	-2960
reg	-2961
▁der	-2962
▁heat	-2963
GH	-2964
▁relaxant	-2965
▁burn	-2966
▁posture	-2967
▁directly	-2968
AM	-2969
▁metast	-2970
▁sensitive	-2971
▁vac	-2972
▁cured	-2973
▁continuous	-2974
stead	-2975
▁Taking	-2976
▁subside	-2977
ances	-2978
▁ligament	-2979
▁fail	-2980
▁formula	-2981
asonography	-2982
rays	-2983
▁vesse	-2984
▁studied	-2985
My	-2986
uc	-2987
used	-2988
please	-2989
yur	-2990
bone	-2991
▁dosage	-2992
▁suddenly	-2993
ched	-2994
ema	-2995
▁application	-2996
ctomy	-2997
sible	-2998
wash	-2999
▁ALL	-3000
just	-3001
▁filling	-3002
ats	-3003
▁bas	-3004
erate	-3005
heral	-3006
▁amox	-3007
ungal	-3008
▁prec	-3009
tivities	-3010
▁Further	-3011
▁supplement	-3012
UR	-3013
▁squ	-3014
▁fom	-3015
▁neuropathy	-3016
ker	-3017
▁bending	-3018
▁Physical	-3019
▁experienced	-3020
ouse	-3021
▁muscular	-3022
isc	-3023
lin	-3024
▁DO	-3025
▁delay	-3026
▁gradually	-3027
▁underlying	-3028
room	-3029
▁tonsi	-3030
etaminophen	-3031
KE	-3032
▁kg	-3033
itor	-3034
▁complications	-3035
▁nat	-3036
yrs	-3037
▁brus	-3038
opl	-3039
ltr	-3040
▁changed	-3041
▁uter	-3042
▁leads	-3043
▁slowly	-3044
BS	-3045
ormed	-3046
▁exposure	-3047
▁strengthening	-3048
▁ulcers	-3049
▁Hy	-3050
▁vi	-3051
▁tail	-3052
▁survi	-3053
af	-3054
▁pare	-3055
iclofenac	-3056
▁myself	-3057
idazole	-3058
▁hear	-3059
▁balance	-3060
leg	-3061
apse	-3062
▁generally	-3063
▁gotten	-3064
ressive	-3065
▁saw	-3066
heumat	-3067
▁advis	-3068
▁description	-3069
▁neurological	-3070
yr	-3071
▁lesions	-3072
Avoid	-3073
▁wake	-3074
▁aut	-3075
▁pills	-3076
▁scared	-3077
▁prostate	-3078
▁someone	-3079
▁activities	-3080
tics	-3081
month	-3082
▁gluc	-3083
▁Ther	-3084
▁forward	-3085
▁recurrent	-3086
▁physiotherapist	-3087
▁Che	-3088
sia	-3089
▁increases	-3090
▁Be	-3091
▁Kindly	-3092
▁5-	-3093
▁Ibuprofen	-3094
▁Q	-3095
▁du	-3096
▁rins	-3097
▁measures	-3098
▁shot	-3099
bl	-3100
▁episode	-3101
xed	-3102
▁although	-3103
rel	-3104
▁mouthwash	-3105
lets	-3106
▁dang	-3107
▁attention	-3108
▁ima	-3109
ective	-3110
▁stones	-3111
▁renal	-3112
▁+	-3113
▁pin	-3114
▁colonoscopy	-3115
▁decrease	-3116
where	-3117
ited	-3118
▁consist	-3119
▁minim	-3120
▁doubts	-3121
▁internal	-3122
ook	-3123
▁AL	-3124
▁oil	-3125
▁number	-3126
▁identif	-3127
▁benign	-3128
▁examine	-3129
▁beha	-3130
▁sister	-3131
▁advisable	-3132
▁One	-3133
▁disorders	-3134
adol	-3135
ices	-3136
▁ant	-3137
▁commonly	-3138
-5	-3139
▁stuff	-3140
Consult	-3141
An	-3142
entr	-3143
▁spasms	-3144
rief	-3145
▁ade	-3146
▁creat	-3147
▁crying	-3148
▁limb	-3149
▁diagnose	-3150
▁perip	-3151
▁strength	-3152
aedic	-3153
▁GI	-3154
▁diarrhoea	-3155
ds	-3156
▁Se	-3157
▁isn	-3158
▁bronc	-3159
neum	-3160
▁various	-3161
▁easily	-3162
▁uncomfort	-3163
▁gastroenter	-3164
put	-3165
▁tnking	-3166
▁aggrav	-3167
omb	-3168
itation	-3169
hyl	-3170
▁massage	-3171
▁follows	-3172
▁relieved	-3173
▁obstruction	-3174
▁endoscopy	-3175
▁Low	-3176
▁brown	-3177
▁meth	-3178
▁lack	-3179
▁becomes	-3180
tional	-3181
▁bother	-3182
▁ovarian	-3183
ph	-3184
▁calc	-3185
idered	-3186
▁factor	-3187
▁bloating	-3188
▁Am	-3189
▁recent	-3190
lox	-3191
ud	-3192
▁doesnt	-3193
AD	-3194
▁late	-3195
▁crown	-3196
▁Vitamin	-3197
▁rot	-3198
▁girl	-3199
cinoma	-3200
nts	-3201
vir	-3202
▁Pl	-3203
ened	-3204
▁conn	-3205
▁enti	-3206
▁Paracetamol	-3207
▁band	-3208
▁reme	-3209
Dr	-3210
▁aspir	-3211
▁requires	-3212
astic	-3213
▁button	-3214
▁intense	-3215
▁bruised	-3216
▁considered	-3217
▁lev	-3218
mic	-3219
ercul	-3220
▁begin	-3221
▁HE	-3222
▁tes	-3223
▁rich	-3224
▁uncomfortable	-3225
▁WH	-3226
▁controlled	-3227
▁chol	-3228
▁swallow	-3229
▁constantly	-3230
UL	-3231
▁WBC	-3232
▁brother	-3233
lls	-3234
▁watery	-3235
rest	-3236
▁vein	-3237
▁consulted	-3238
VER	-3239
▁usual	-3240
▁electroly	-3241
▁marrow	-3242
vid	-3243
▁ankles	-3244
▁fomentation	-3245
▁Physiotherapist	-3246
igh	-3247
ontinue	-3248
5-	-3249
wch	-3250
▁growing	-3251
ram	-3252
▁thumb	-3253
▁finding	-3254
▁tin	-3255
▁earlier	-3256
▁appendicitis	-3257
▁total	-3258
▁hourly	-3259
▁injured	-3260
▁complaints	-3261
▁obs	-3262
▁pop	-3263
▁Need	-3264
▁peripheral	-3265
▁extracted	-3266
▁ste	-3267
thanks	-3268
urance	-3269
▁began	-3270
cious	-3271
▁progress	-3272
rew	-3273
till	-3274
▁vertigo	-3275
▁depending	-3276
▁discussion	-3277
▁NOT	-3278
assi	-3279
▁fain	-3280
▁hole	-3281
▁intestinal	-3282
▁exclude	-3283
▁forum	-3284
▁thrice	-3285
▁against	-3286
▁possibilities	-3287
ony	-3288
▁US	-3289
ession	-3290
▁fit	-3291
▁cover	-3292
▁temporary	-3293
▁Ch	-3294
ible	-3295
▁urg	-3296
▁af	-3297
▁hrs	-3298
morrow	-3299
▁WITH	-3300
▁smoke	-3301
▁thave	-3302
▁anesthe	-3303
▁!	-3304
???	-3305
▁answers	-3306
▁orig	-3307
▁clinic	-3308
▁immune	-3309
br	-3310
▁May	-3311
▁panic	-3312
▁trave	-3313
▁tomorrow	-3314
▁involve	-3315
ana	-3316
▁wash	-3317
▁emp	-3318
▁veins	-3319
osin	-3320
▁lying	-3321
odon	-3322
▁space	-3323
▁super	-3324
▁passed	-3325
▁miss	-3326
NG	-3327
tivitamin	-3328
omple	-3329
▁Notng	-3330
▁saying	-3331
▁gher	-3332
▁status	-3333
cologist	-3334
▁epilepsy	-3335
▁scar	-3336
▁painkillers	-3337
eb	-3338
ows	-3339
▁deal	-3340
▁subst	-3341
▁Having	-3342
▁rele	-3343
▁group	-3344
▁lbs	-3345
now	-3346
▁motions	-3347
▁showing	-3348
▁stab	-3349
▁forehead	-3350
yle	-3351
▁born	-3352
▁stic	-3353
▁brief	-3354
ky	-3355
▁caps	-3356
▁reply	-3357
▁0	-3358
YYY	-3359
ization	-3360
▁keeps	-3361
▁gastric	-3362
▁urination	-3363
▁sent	-3364
▁sweating	-3365
zy	-3366
▁drinks	-3367
EST	-3368
▁YYYYY	-3369
rection	-3370
▁YYYYYYYY	-3371
cture	-3372
ber	-3373
▁60	-3374
▁complex	-3375
▁house	-3376
ules	-3377
▁Dia	-3378
▁moderate	-3379
▁cereb	-3380
▁topical	-3381
ran	-3382
arily	-3383
▁aden	-3384
▁products	-3385
▁Physician	-3386
view	-3387
▁send	-3388
▁became	-3389
ned	-3390
▁dys	-3391
▁dehydration	-3392
▁meal	-3393
eared	-3394
▁hydro	-3395
GHT	-3396
ulitis	-3397
▁neural	-3398
kast	-3399
▁pediatric	-3400
▁22	-3401
▁base	-3402
▁attacks	-3403
▁Therapist	-3404
▁clos	-3405
▁vertebra	-3406
▁pap	-3407
▁colle	-3408
OL	-3409
rine	-3410
▁sounds	-3411
▁sing	-3412
▁twit	-3413
▁orthopaedic	-3414
▁cardiac	-3415
▁stretcng	-3416
upt	-3417
▁GP	-3418
ternal	-3419
▁nature	-3420
▁tran	-3421
7.	-3422
▁decay	-3423
anced	-3424
▁center	-3425
unt	-3426
▁mind	-3427
▁filled	-3428
▁profile	-3429
▁instead	-3430
▁trem	-3431
▁tendon	-3432
▁gyn	-3433
:-	-3434
ying	-3435
▁diap	-3436
▁indicates	-3437
▁shoulders	-3438
▁ce	-3439
oration	-3440
alin	-3441
▁prolong	-3442
▁prognosis	-3443
ecting	-3444
▁pneum	-3445
▁recei	-3446
urning	-3447
▁adequate	-3448
▁ang	-3449
▁cleaning	-3450
matologist	-3451
▁Ap	-3452
▁Jay	-3453
ished	-3454
CG	-3455
▁comfort	-3456
▁involved	-3457
▁ORS	-3458
▁resolve	-3459
gether	-3460
▁Use	-3461
ounds	-3462
▁glucose	-3463
▁Ast	-3464
▁won	-3465
▁lately	-3466
▁PAIN	-3467
surgeon	-3468
▁gives	-3469
eclofenac	-3470
▁pa	-3471
pro	-3472
▁ct	-3473
▁mark	-3474
▁arter	-3475
▁sched	-3476
ird	-3477
▁ure	-3478
algia	-3479
▁cost	-3480
▁floor	-3481
▁entire	-3482
▁repeat	-3483
▁platelets	-3484
ardi	-3485
▁flow	-3486
▁rect	-3487
▁development	-3488
▁EEG	-3489
▁ive	-3490
▁sir	-3491
▁basis	-3492
oli	-3493
oting	-3494
▁Suff	-3495
▁char	-3496
▁Inf	-3497
▁mainly	-3498
▁cramping	-3499
opatc	-3500
▁appro	-3501
▁hormon	-3502
▁counter	-3503
▁pelvis	-3504
▁turned	-3505
▁bilateral	-3506
▁investigated	-3507
▁sli	-3508
▁rese	-3509
▁SH	-3510
▁heard	-3511
▁seconds	-3512
ronidazole	-3513
▁sorry	-3514
also	-3515
▁talk	-3516
▁noted	-3517
aneous	-3518
▁seemed	-3519
▁whenever	-3520
▁Tab	-3521
▁spray	-3522
▁tightness	-3523
▁RE	-3524
erculosis	-3525
IL	-3526
▁Don	-3527
bility	-3528
gnosed	-3529
▁antib	-3530
▁event	-3531
▁behavi	-3532
▁bulging	-3533
▁reducing	-3534
assium	-3535
▁disturb	-3536
▁multivitamin	-3537
.,	-3538
nder	-3539
▁rub	-3540
esterol	-3541
▁brusng	-3542
▁flat	-3543
inched	-3544
▁compresses	-3545
▁remember	-3546
ERG	-3547
▁max	-3548
litis	-3549
▁lact	-3550
▁unlike	-3551
▁bacteria	-3552
ecause	-3553
▁thromb	-3554
▁repeated	-3555
▁fer	-3556
▁sun	-3557
ries	-3558
ulin	-3559
After	-3560
▁lumps	-3561
resh	-3562
take	-3563
▁approx	-3564
▁ging	-3565
▁drain	-3566
▁organ	-3567
had	-3568
▁TI	-3569
ension	-3570
ece	-3571
olin	-3572
▁pulmon	-3573
▁reading	-3574
▁immunity	-3575
pain	-3576
▁lateral	-3577
▁pee	-3578
▁provided	-3579
▁weights	-3580
▁continued	-3581
ics	-3582
▁por	-3583
▁sores	-3584
▁suggests	-3585
noon	-3586
overed	-3587
▁tummy	-3588
▁determine	-3589
▁ME	-3590
load	-3591
raid	-3592
▁roof	-3593
▁anter	-3594
airs	-3595
▁wants	-3596
▁described	-3597
ori	-3598
ryl	-3599
▁Per	-3600
▁view	-3601
▁hasn	-3602
▁bring	-3603
▁condu	-3604
▁21	-3605
▁weird	-3606
▁disapp	-3607
▁falling	-3608
▁natural	-3609
losis	-3610
▁skull	-3611
tist	-3612
▁killer	-3613
▁UTI	-3614
bbing	-3615
▁posterior	-3616
▁limbs	-3617
▁prior	-3618
more	-3619
▁tissues	-3620
ilet	-3621
▁brush	-3622
▁oncologist	-3623
▁rn	-3624
abap	-3625
▁rinses	-3626
▁bronctis	-3627
▁consultations	-3628
cking	-3629
▁ball	-3630
weight	-3631
nes	-3632
▁carefully	-3633
hoid	-3634
▁pinched	-3635
▁rise	-3636
▁appendix	-3637
oar	-3638
que	-3639
days	-3640
▁sod	-3641
▁tsaid	-3642
raw	-3643
▁surf	-3644
▁habit	-3645
▁asleep	-3646
mitted	-3647
▁osteop	-3648
▁ec	-3649
▁performing	-3650
EE	-3651
▁together	-3652
▁colour	-3653
▁method	-3654
▁review	-3655
........	-3656
bc	-3657
kinson	-3658
ecologist	-3659
▁AM	-3660
▁Good	-3661
▁Ultr	-3662
▁gain	-3663
▁everyday	-3664
▁hematoma	-3665
▁alternative	-3666
▁Even	-3667
▁season	-3668
▁breathless	-3669
UM	-3670
ets	-3671
lling	-3672
▁mast	-3673
▁narr	-3674
▁CON	-3675
▁nor	-3676
▁yog	-3677
▁clls	-3678
▁apart	-3679
▁rheumat	-3680
rosis	-3681
ormone	-3682
.5.	-3683
▁4.	-3684
copic	-3685
tit	-3686
▁Tw	-3687
PT	-3688
▁hypot	-3689
mentation	-3690
▁backache	-3691
▁afraid	-3692
▁afternoon	-3693
▁CA	-3694
▁4-6	-3695
▁mot	-3696
▁spl	-3697
▁thoughts	-3698
▁Neurologist	-3699
▁providing	-3700
▁antacid	-3701
▁monitor	-3702
▁stabbing	-3703
▁poop	-3704
▁hydration	-3705
asm	-3706
▁exactly	-3707
rophy	-3708
▁saliva	-3709
▁wall	-3710
▁broke	-3711
▁solid	-3712
aria	-3713
▁moment	-3714
▁speech	-3715
▁collar	-3716
▁esopha	-3717
ontal	-3718
▁dad	-3719
icial	-3720
▁blue	-3721
oster	-3722
▁imbal	-3723
▁practice	-3724
▁guid	-3725
▁zinc	-3726
ential	-3727
▁nebul	-3728
▁allergen	-3729
▁decreased	-3730
▁shortness	-3731
▁Try	-3732
▁ring	-3733
▁NE	-3734
after	-3735
abapent	-3736
atel	-3737
hyroid	-3738
▁tumour	-3739
▁parts	-3740
▁watch	-3741
▁insurance	-3742
dose	-3743
▁hyst	-3744
▁bathroom	-3745
ensity	-3746
▁Cancer	-3747
▁hep	-3748
▁sciatica	-3749
▁AD	-3750
round	-3751
▁paral	-3752
▁Sw	-3753
▁pneumonia	-3754
▁Gast	-3755
▁Wisng	-3756
▁breathe	-3757
▁inhalation	-3758
lied	-3759
▁oxy	-3760
▁fusion	-3761
▁putting	-3762
How	-3763
rol	-3764
▁TB	-3765
▁doses	-3766
▁depression	-3767
els	-3768
apid	-3769
▁flex	-3770
▁reac	-3771
▁studies	-3772
▁dy	-3773
omplete	-3774
▁choice	-3775
▁weigh	-3776
▁injur	-3777
▁monte	-3778
▁unlikely	-3779
▁400	-3780
dominal	-3781
▁cholesterol	-3782
tch	-3783
▁knot	-3784
▁discol	-3785
▁helping	-3786
8.	-3787
▁CBC	-3788
▁list	-3789
▁braces	-3790
▁couldn	-3791
▁waiting	-3792
cussion	-3793
▁gargle	-3794
▁Tylenol	-3795
▁lymphoma	-3796
▁immediate	-3797
ediatrician	-3798
▁Patel	-3799
how	-3800
▁job	-3801
▁chewing	-3802
▁Let	-3803
▁plz	-3804
▁Tare	-3805
▁gene	-3806
▁pict	-3807
amines	-3808
▁hormone	-3809
▁shooting	-3810
form	-3811
▁presence	-3812
▁dermatologist	-3813
OOD	-3814
arch	-3815
▁worst	-3816
▁others	-3817
▁terrible	-3818
pr	-3819
INE	-3820
cep	-3821
▁Surgeon	-3822
with	-3823
▁Recently	-3824
▁remedies	-3825
▁relaxants	-3826
▁didnt	-3827
regular	-3828
erectomy	-3829
▁guidance	-3830
PP	-3831
▁powder	-3832
ested	-3833
▁metab	-3834
▁assist	-3835
▁vascular	-3836
▁origin	-3837
▁opening	-3838
▁intermitt	-3839
▁tenderness	-3840
over	-3841
▁wet	-3842
▁Give	-3843
▁SU	-3844
▁cm	-3845
▁pls	-3846
▁throughout	-3847
▁pick	-3848
▁counts	-3849
▁dangerous	-3850
go	-3851
ball	-3852
▁sinusitis	-3853
ASE	-3854
▁gargles	-3855
BLE	-3856
▁pink	-3857
ocks	-3858
lukast	-3859
▁prolapse	-3860
eel	-3861
adan	-3862
oney	-3863
▁spell	-3864
▁continues	-3865
▁0.	-3866
IGHT	-3867
▁Back	-3868
▁works	-3869
etrizine	-3870
▁contains	-3871
▁migraine	-3872
▁potassium	-3873
What	-3874
▁preg	-3875
ape	-3876
ded	-3877
▁prom	-3878
drated	-3879
▁dem	-3880
tious	-3881
▁fully	-3882
▁penis	-3883
aintain	-3884
▁45	-3885
▁babies	-3886
allergic	-3887
▁performed	-3888
▁throbbing	-3889
CE	-3890
▁cn	-3891
▁Help	-3892
▁fungal	-3893
imum	-3894
▁About	-3895
estions	-3896
▁Monday	-3897
She	-3898
▁48	-3899
abalin	-3900
▁narrowing	-3901
▁rice	-3902
ravadan	-3903
▁Indravadan	-3904
ental	-3905
▁rever	-3906
▁energy	-3907
▁operated	-3908
▁amoxicillin	-3909
▁IV	-3910
▁PC	-3911
atin	-3912
▁sour	-3913
urgery	-3914
▁clots	-3915
▁purple	-3916
▁recurrence	-3917
▁juice	-3918
ison	-3919
▁egg	-3920
▁hab	-3921
▁ple	-3922
▁Oral	-3923
▁wish	-3924
▁injuries	-3925
▁blur	-3926
▁link	-3927
▁purp	-3928
▁round	-3929
▁clarification	-3930
▁pun	-3931
adine	-3932
▁discs	-3933
▁patch	-3934
▁toilet	-3935
▁radiograp	-3936
▁needles	-3937
▁sed	-3938
▁okay	-3939
▁carcinoma	-3940
▁prolonged	-3941
ming	-3942
▁Con	-3943
▁uterus	-3944
▁swallowing	-3945
▁auto	-3946
▁worsen	-3947
tid	-3948
▁By	-3949
▁prop	-3950
▁tube	-3951
▁tremors	-3952
SAID	-3953
▁hem	-3954
stood	-3955
▁patches	-3956
▁hypertension	-3957
▁ultrasonography	-3958
▁od	-3959
some	-3960
▁bony	-3961
▁kept	-3962
▁wanted	-3963
▁fig	-3964
▁fresh	-3965
▁onset	-3966
▁75	-3967
itive	-3968
▁bottle	-3969
▁bare	-3970
▁tiny	-3971
▁physio	-3972
▁strange	-3973
▁intestine	-3974
olute	-3975
▁twist	-3976
eneral	-3977
▁Suffering	-3978
rd	-3979
25	-3980
has	-3981
▁guess	-3982
▁rapid	-3983
9.	-3984
na	-3985
▁erup	-3986
▁concentr	-3987
▁Adv	-3988
▁oxygen	-3989
▁concussion	-3990
cken	-3991
▁woman	-3992
osing	-3993
▁types	-3994
▁undergone	-3995
▁FE	-3996
▁LI	-3997
▁pump	-3998
loc	-3999
andom	-4000
▁Start	-4001
▁alone	-4002
▁sometime	-4003
▁metronidazole	-4004
ATION	-4005
▁ALLERG	-4006
▁inflamed	-4007
▁allergens	-4008
lan	-4009
▁28	-4010
septic	-4011
▁bigger	-4012
▁expert	-4013
▁upload	-4014
▁central	-4015
cat	-4016
▁Due	-4017
icient	-4018
▁nerv	-4019
ometri	-4020
▁needle	-4021
▁prefer	-4022
romyalgia	-4023
▁recurring	-4024
osed	-4025
ended	-4026
▁tm	-4027
▁hum	-4028
iscus	-4029
tical	-4030
▁initial	-4031
▁understood	-4032
▁DI	-4033
bladder	-4034
▁decide	-4035
▁sleepy	-4036
▁23	-4037
▁SP	-4038
leen	-4039
loss	-4040
▁stairs	-4041
ervative	-4042
▁vessels	-4043
▁blisters	-4044
▁herniated	-4045
▁blade	-4046
▁managed	-4047
▁bes	-4048
hache	-4049
▁push	-4050
▁excess	-4051
▁minute	-4052
▁appreciated	-4053
▁ate	-4054
▁mec	-4055
▁eosin	-4056
abapentin	-4057
▁across	-4058
erve	-4059
▁ARE	-4060
adryl	-4061
▁reve	-4062
▁rnitis	-4063
lect	-4064
▁ran	-4065
▁nearby	-4066
▁keeping	-4067
▁vitamins	-4068
▁imbalance	-4069
did	-4070
fusion	-4071
▁wearing	-4072
▁tcan	-4073
▁intra	-4074
▁orthopedician	-4075
AST	-4076
▁Ly	-4077
▁ana	-4078
fortun	-4079
▁edema	-4080
▁surgeries	-4081
▁2.5	-4082
▁Met	-4083
▁arth	-4084
▁drop	-4085
▁single	-4086
▁partial	-4087
▁AC	-4088
▁lose	-4089
▁moved	-4090
▁kidneys	-4091
▁improved	-4092
Get	-4093
ored	-4094
ccess	-4095
▁ease	-4096
▁Sugg	-4097
▁pins	-4098
▁extent	-4099
▁referred	-4100
gic	-4101
▁ni	-4102
riday	-4103
▁failure	-4104
▁tonight	-4105
▁Medicine	-4106
bed	-4107
▁Li	-4108
ites	-4109
▁trd	-4110
▁indu	-4111
atis	-4112
▁unb	-4113
▁armp	-4114
pecial	-4115
▁spreading	-4116
isit	-4117
▁cycle	-4118
▁urgent	-4119
▁shock	-4120
▁spleen	-4121
▁tech	-4122
▁inches	-4123
▁insulin	-4124
▁shaking	-4125
▁tc	-4126
▁tea	-4127
▁containing	-4128
Since	-4129
▁hence	-4130
▁quote	-4131
▁facial	-4132
▁appeared	-4133
▁Every	-4134
▁toler	-4135
▁hemorr	-4136
▁lasted	-4137
▁advance	-4138
▁prednis	-4139
▁evaluate	-4140
▁tiredness	-4141
tra	-4142
▁scrat	-4143
▁healed	-4144
▁5.	-4145
▁Meanwle	-4146
▁hysterectomy	-4147
oce	-4148
▁quickly	-4149
▁herniation	-4150
▁BUT	-4151
▁unus	-4152
▁roots	-4153
▁Friday	-4154
▁Apply	-4155
▁steps	-4156
▁tuberculosis	-4157
months	-4158
▁analysis	-4159
▁identify	-4160
▁conduction	-4161
iry	-4162
▁nod	-4163
iates	-4164
▁Keep	-4165
▁webs	-4166
function	-4167
▁survival	-4168
vention	-4169
▁imaging	-4170
aus	-4171
AP	-4172
▁wasn	-4173
▁cysts	-4174
▁nervous	-4175
hs	-4176
ym	-4177
nel	-4178
idering	-4179
▁cheeks	-4180
su	-4181
ogen	-4182
pite	-4183
▁brace	-4184
▁extra	-4185
▁remains	-4186
▁fix	-4187
▁cool	-4188
rologist	-4189
▁comfortable	-4190
▁spondylosis	-4191
GE	-4192
▁acng	-4193
▁wont	-4194
▁fatty	-4195
▁Severe	-4196
▁antiseptic	-4197
----	-4198
▁seek	-4199
▁Under	-4200
4-	-4201
cm	-4202
uk	-4203
ocol	-4204
▁lif	-4205
▁Would	-4206
▁class	-4207
▁piece	-4208
▁severity	-4209
▁....	-4210
▁frequency	-4211
▁conservative	-4212
run	-4213
ding	-4214
▁glass	-4215
▁surface	-4216
▁involvement	-4217
.1.	-4218
▁deli	-4219
odic	-4220
▁cramp	-4221
▁supply	-4222
Re	-4223
-10	-4224
ni	-4225
▁mixed	-4226
atur	-4227
ract	-4228
▁empty	-4229
▁action	-4230
▁nights	-4231
▁antistamine	-4232
▁Jan	-4233
itting	-4234
tisone	-4235
oot	-4236
▁26	-4237
▁blocked	-4238
▁approach	-4239
▁cancerous	-4240
/1	-4241
hysi	-4242
izing	-4243
▁THAT	-4244
▁puff	-4245
▁forget	-4246
▁Dec	-4247
yurved	-4248
▁applied	-4249
▁surround	-4250
▁radiotherapy	-4251
outs	-4252
▁mins	-4253
rusion	-4254
▁mucos	-4255
▁pillow	-4256
▁35	-4257
▁chlor	-4258
▁habits	-4259
▁organs	-4260
ENS	-4261
ged	-4262
lored	-4263
▁leaf	-4264
ocytes	-4265
▁output	-4266
▁therapist	-4267
▁NSAID	-4268
▁focus	-4269
▁implant	-4270
▁developing	-4271
▁ccken	-4272
▁website	-4273
▁irregular	-4274
▁27	-4275
▁Has	-4276
▁syn	-4277
▁phot	-4278
▁rupt	-4279
▁describe	-4280
▁menstru	-4281
▁Best	-4282
estinal	-4283
▁received	-4284
▁toot	-4285
▁upset	-4286
▁probable	-4287
▁malignant	-4288
▁Did	-4289
▁tip	-4290
▁land	-4291
▁stim	-4292
headed	-4293
▁accum	-4294
standing	-4295
▁blister	-4296
ESS	-4297
▁hearing	-4298
mail	-4299
▁carb	-4300
▁shots	-4301
▁absolute	-4302
▁location	-4303
Ne	-4304
▁quad	-4305
▁bruises	-4306
▁decided	-4307
▁tonsils	-4308
▁investigate	-4309
▁complains	-4310
▁disappear	-4311
och	-4312
▁shown	-4313
Till	-4314
▁random	-4315
▁perfect	-4316
▁gargling	-4317
▁Only	-4318
ressed	-4319
▁Special	-4320
▁gap	-4321
▁office	-4322
etng	-4323
▁hung	-4324
▁Yesterday	-4325
▁resulting	-4326
▁neurosurgeon	-4327
Me	-4328
ftal	-4329
▁talking	-4330
▁admitted	-4331
▁buttocks	-4332
▁Cal	-4333
ached	-4334
▁vent	-4335
▁micro	-4336
oliosis	-4337
▁success	-4338
IR	-4339
▁AT	-4340
▁state	-4341
oler	-4342
▁PRO	-4343
▁thus	-4344
▁fruit	-4345
yurveda	-4346
▁facing	-4347
▁visible	-4348
▁protrusion	-4349
▁intermittent	-4350
ffee	-4351
▁ECG	-4352
▁pounds	-4353
zema	-4354
▁build	-4355
▁indicated	-4356
gus	-4357
ollow	-4358
tered	-4359
▁disk	-4360
▁enzy	-4361
ukemia	-4362
▁leave	-4363
▁shall	-4364
autions	-4365
▁palp	-4366
▁damaged	-4367
▁coc	-4368
Based	-4369
▁badly	-4370
▁shape	-4371
▁cleaned	-4372
▁tailbone	-4373
30	-4374
une	-4375
▁heel	-4376
▁differen	-4377
▁initially	-4378
▁YOUR	-4379
▁picture	-4380
nday	-4381
▁tumors	-4382
▁detected	-4383
▁radiates	-4384
back	-4385
▁Was	-4386
▁foramin	-4387
▁unusual	-4388
la	-4389
▁Pr	-4390
▁puls	-4391
roscopy	-4392
eprazole	-4393
pal	-4394
ition	-4395
▁mater	-4396
▁gallbladder	-4397
ctive	-4398
immun	-4399
earable	-4400
▁repair	-4401
▁CH	-4402
▁hes	-4403
▁easy	-4404
▁packs	-4405
▁transfusion	-4406
zed	-4407
aund	-4408
▁hormonal	-4409
acent	-4410
arest	-4411
▁epid	-4412
odontist	-4413
▁bar	-4414
▁Diab	-4415
▁lasts	-4416
▁placed	-4417
▁obvious	-4418
▁twitcng	-4419
▁pancreas	-4420
▁NO	-4421
▁sci	-4422
ified	-4423
▁fasting	-4424
▁subsided	-4425
▁Diagnosed	-4426
▁Specialist	-4427
▁speed	-4428
▁steam	-4429
kelet	-4430
However	-4431
▁anymore	-4432
ciousness	-4433
acin	-4434
▁swim	-4435
▁smear	-4436
▁inhalers	-4437
▁Go	-4438
OULD	-4439
▁sam	-4440
▁tghs	-4441
lusion	-4442
ursday	-4443
▁leafy	-4444
▁anterior	-4445
▁stuck	-4446
▁acidity	-4447
acral	-4448
ommon	-4449
▁itch	-4450
▁laying	-4451
▁diclofenac	-4452
amet	-4453
▁ones	-4454
▁depos	-4455
▁headed	-4456
▁vo	-4457
▁lie	-4458
▁intr	-4459
▁acetaminophen	-4460
THER	-4461
inner	-4462
▁ische	-4463
▁malignancy	-4464
entia	-4465
▁inte	-4466
▁testic	-4467
Is	-4468
▁remain	-4469
▁stretch	-4470
Give	-4471
aries	-4472
▁duct	-4473
▁scalp	-4474
▁vaginal	-4475
▁pancreatic	-4476
▁mas	-4477
▁uric	-4478
▁discoloration	-4479
asp	-4480
titis	-4481
▁nearly	-4482
▁exposed	-4483
▁beginning	-4484
▁SO	-4485
▁Ben	-4486
verse	-4487
▁mening	-4488
▁finally	-4489
▁unbearable	-4490
▁80	-4491
ceed	-4492
itary	-4493
▁Dentist	-4494
▁vertebral	-4495
bac	-4496
▁tdid	-4497
▁lethar	-4498
nge	-4499
MENT	-4500
geal	-4501
hope	-4502
▁enc	-4503
▁boil	-4504
cribed	-4505
▁precautions	-4506
▁feeds	-4507
▁painkiller	-4508
ERY	-4509
ton	-4510
▁endometri	-4511
tim	-4512
▁true	-4513
ae	-4514
▁FR	-4515
▁ent	-4516
▁sip	-4517
▁poll	-4518
▁Lower	-4519
keletal	-4520
▁degree	-4521
▁horrible	-4522
ah	-4523
Jay	-4524
▁HC	-4525
ppler	-4526
▁toothache	-4527
▁vertebrae	-4528
▁ou	-4529
vers	-4530
▁1-2	-4531
halin	-4532
▁aged	-4533
▁Asthma	-4534
▁poison	-4535
▁OK	-4536
▁GET	-4537
▁luke	-4538
ime	-4539
▁worked	-4540
And	-4541
▁Aug	-4542
there	-4543
▁Many	-4544
▁Orth	-4545
▁lear	-4546
▁tnks	-4547
▁despite	-4548
▁confused	-4549
▁(1	-4550
▁hu	-4551
urse	-4552
▁vol	-4553
▁yoga	-4554
▁barely	-4555
▁Doctors	-4556
▁fractured	-4557
000	-4558
Any	-4559
▁MS	-4560
inse	-4561
▁allow	-4562
▁chair	-4563
▁relation	-4564
▁4-5	-4565
▁syp	-4566
▁tox	-4567
idine	-4568
▁bandage	-4569
▁earliest	-4570
ify	-4571
▁WAS	-4572
▁lap	-4573
inine	-4574
▁training	-4575
▁occasionally	-4576
Now	-4577
▁CR	-4578
▁fair	-4579
▁fear	-4580
▁lobe	-4581
ission	-4582
▁totally	-4583
▁includes	-4584
TS	-4585
EAR	-4586
▁150	-4587
▁obj	-4588
▁minimal	-4589
mox	-4590
iter	-4591
immune	-4592
▁genetic	-4593
▁cerebral	-4594
hysiotherapy	-4595
hood	-4596
ruci	-4597
odies	-4598
▁write	-4599
▁sodium	-4600
▁glands	-4601
▁lotion	-4602
▁telling	-4603
▁metastasis	-4604
OME	-4605
oon	-4606
when	-4607
▁Doc	-4608
▁ghly	-4609
▁fal	-4610
▁eats	-4611
mptoms	-4612
▁Gastro	-4613
▁teetng	-4614
ese	-4615
ils	-4616
▁Read	-4617
▁intoler	-4618
▁asthmatic	-4619
▁pay	-4620
▁war	-4621
▁During	-4622
▁scaling	-4623
emic	-4624
▁ess	-4625
ality	-4626
olone	-4627
▁Because	-4628
▁difference	-4629
ik	-4630
▁mm	-4631
▁ANY	-4632
▁scans	-4633
▁popping	-4634
▁sufficient	-4635
▁Both	-4636
▁cast	-4637
▁restric	-4638
▁confirmation	-4639
lia	-4640
▁om	-4641
sect	-4642
otrop	-4643
▁reactions	-4644
.)	-4645
▁pale	-4646
▁radiograph	-4647
▁IF	-4648
▁sweat	-4649
▁reveal	-4650
▁Car	-4651
▁ways	-4652
▁Right	-4653
▁bloated	-4654
▁purpose	-4655
▁abnormality	-4656
ME	-4657
icking	-4658
▁Reason	-4659
oarthritis	-4660
fortunately	-4661
▁surrounding	-4662
▁MG	-4663
▁parents	-4664
▁finished	-4665
lbs	-4666
▁Pres	-4667
▁India	-4668
▁accomp	-4669
▁coffee	-4670
▁psycat	-4671
▁fibromyalgia	-4672
▁Pre	-4673
econd	-4674
▁particularly	-4675
ELP	-4676
oul	-4677
etter	-4678
▁gran	-4679
▁glad	-4680
▁settle	-4681
▁trigger	-4682
▁70	-4683
▁tun	-4684
odone	-4685
thank	-4686
▁trig	-4687
▁aspirin	-4688
▁enlarge	-4689
▁dysfunction	-4690
▁cro	-4691
▁mac	-4692
vedic	-4693
▁admin	-4694
aturday	-4695
▁hardly	-4696
▁prepar	-4697
ND	-4698
nec	-4699
▁RA	-4700
aging	-4701
▁dinner	-4702
▁struct	-4703
▁suspect	-4704
▁scheduled	-4705
All	-4706
cks	-4707
▁IBS	-4708
▁intestines	-4709
▁excessively	-4710
att	-4711
▁systemic	-4712
▁Parkinson	-4713
▁periodontal	-4714
ST	-4715
ocal	-4716
uter	-4717
▁ovary	-4718
▁careful	-4719
▁tylenol	-4720
ACK	-4721
▁RBC	-4722
▁dil	-4723
▁gen	-4724
years	-4725
▁Fever	-4726
▁absor	-4727
▁checkup	-4728
▁adjust	-4729
▁alright	-4730
▁chemical	-4731
▁anesthesia	-4732
▁overweight	-4733
▁aceclofenac	-4734
uesday	-4735
tensive	-4736
▁thecal	-4737
▁conv	-4738
▁adult	-4739
▁losing	-4740
uming	-4741
▁pulse	-4742
▁voice	-4743
▁armpit	-4744
▁located	-4745
▁electrolytes	-4746
adi	-4747
mer	-4748
▁Cl	-4749
cial	-4750
▁perc	-4751
▁waking	-4752
▁lightheaded	-4753
▁5-7	-4754
bacco	-4755
▁phen	-4756
▁behavior	-4757
4,	-4758
aks	-4759
urt	-4760
ccording	-4761
warm	-4762
▁cre	-4763
ribut	-4764
ongest	-4765
▁nurse	-4766
▁Unless	-4767
▁diaper	-4768
▁smaller	-4769
ued	-4770
▁est	-4771
▁relieving	-4772
oud	-4773
oping	-4774
▁sweats	-4775
▁weather	-4776
▁improving	-4777
▁paediatrician	-4778
▁enter	-4779
aundice	-4780
▁eczema	-4781
▁Ultrasound	-4782
FF	-4783
top	-4784
▁DAY	-4785
▁pad	-4786
▁Over	-4787
▁inch	-4788
estyle	-4789
▁spells	-4790
▁transp	-4791
▁vomited	-4792
▁Acetaminophen	-4793
▁ven	-4794
ology	-4795
▁note	-4796
▁becoming	-4797
intestinal	-4798
▁Understanding	-4799
ya	-4800
▁90	-4801
▁Wch	-4802
Wisng	-4803
▁cardiologist	-4804
▁AB	-4805
orosis	-4806
▁strep	-4807
▁Qu	-4808
▁swit	-4809
▁todd	-4810
ortive	-4811
pm	-4812
mph	-4813
▁ann	-4814
cobal	-4815
▁tram	-4816
▁figure	-4817
▁sinuses	-4818
▁circulation	-4819
▁DM	-4820
▁ev	-4821
otng	-4822
▁sear	-4823
related	-4824
▁pregabalin	-4825
▁undergoing	-4826
3,	-4827
imin	-4828
▁pha	-4829
▁pit	-4830
▁material	-4831
▁scoliosis	-4832
▁occasional	-4833
Physiotherapy	-4834
cor	-4835
lus	-4836
▁larg	-4837
▁bronch	-4838
▁formed	-4839
▁release	-4840
▁Abdominal	-4841
XX	-4842
arent	-4843
▁HELP	-4844
ONE	-4845
▁Pos	-4846
▁runs	-4847
mogram	-4848
▁living	-4849
▁wonder	-4850
▁EX	-4851
▁Col	-4852
▁aggravate	-4853
▁sensations	-4854
ht	-4855
▁inbit	-4856
▁speak	-4857
▁stitc	-4858
cine	-4859
fast	-4860
unch	-4861
▁MED	-4862
▁bug	-4863
▁Xray	-4864
▁gout	-4865
▁29	-4866
fied	-4867
▁Post	-4868
▁mess	-4869
▁reha	-4870
estation	-4871
▁impacted	-4872
oe	-4873
▁Ser	-4874
▁crop	-4875
▁changing	-4876
pne	-4877
uscle	-4878
▁mechan	-4879
▁quanti	-4880
▁decision	-4881
To	-4882
App	-4883
Some	-4884
▁aware	-4885
▁sting	-4886
▁stages	-4887
▁tension	-4888
▁subsides	-4889
ERD	-4890
▁--	-4891
▁HAS	-4892
▁Wle	-4893
ERI	-4894
▁See	-4895
least	-4896
ontro	-4897
▁moist	-4898
▁dementia	-4899
irub	-4900
aline	-4901
▁carry	-4902
▁vagina	-4903
▁scientif	-4904
▁ign	-4905
▁screen	-4906
RA	-4907
▁lax	-4908
urrent	-4909
▁reach	-4910
▁pattern	-4911
▁bd	-4912
▁pep	-4913
gging	-4914
▁driving	-4915
▁tobacco	-4916
▁therefore	-4917
▁clinically	-4918
▁Suggestions	-4919
▁BD	-4920
▁LE	-4921
▁gym	-4922
▁iam	-4923
▁quit	-4924
▁twill	-4925
SO	-4926
▁BL	-4927
alth	-4928
yurvedic	-4929
▁montelukast	-4930
rum	-4931
wor	-4932
▁120	-4933
▁twere	-4934
aughter	-4935
▁anyone	-4936
▁hydrated	-4937
sm	-4938
▁TAKE	-4939
▁ultra	-4940
▁resist	-4941
▁proteins	-4942
▁decongest	-4943
▁tall	-4944
▁thru	-4945
▁online	-4946
▁forearm	-4947
▁contrast	-4948
▁collection	-4949
pes	-4950
▁Ar	-4951
spec	-4952
▁Fee	-4953
▁nice	-4954
lerosis	-4955
▁juices	-4956
▁techni	-4957
▁typhoid	-4958
▁lifestyle	-4959
▁supportive	-4960
▁SY	-4961
▁End	-4962
acting	-4963
▁Based	-4964
▁tunnel	-4965
▁infants	-4966
▁slipped	-4967
▁throwing	-4968
1,	-4969
ERE	-4970
▁Till	-4971
Treatment	-4972
▁interest	-4973
▁leukemia	-4974
▁breathlessness	-4975
▁MON	-4976
▁added	-4977
▁insect	-4978
▁eventually	-4979
MS	-4980
▁5'	-4981
▁HAD	-4982
▁bless	-4983
▁acting	-4984
▁upto	-4985
illary	-4986
▁waist	-4987
▁calcul	-4988
▁stabil	-4989
▁inser	-4990
▁faster	-4991
mi	-4992
hex	-4993
????	-4994
ades	-4995
umar	-4996
ility	-4997
▁Cause	-4998
▁limited	-4999
▁constipated	-5000
First	-5001
vertic	-5002
▁interval	-5003
2)	-5004
ined	-5005
iling	-5006
▁retain	-5007
▁affecting	-5008
ining	-5009
▁fits	-5010
▁6-	-5011
▁Ive	-5012
▁ane	-5013
▁core	-5014
▁simp	-5015
▁points	-5016
▁antistamines	-5017
erol	-5018
▁sense	-5019
▁shoes	-5020
▁stopping	-5021
▁substance	-5022
▁progressive	-5023
▁ll	-5024
▁ahead	-5025
▁besides	-5026
ruciating	-5027
▁drainage	-5028
▁completed	-5029
▁nutrition	-5030
oun	-5031
▁65	-5032
acic	-5033
▁anus	-5034
▁huge	-5035
▁request	-5036
sis	-5037
asia	-5038
sequ	-5039
▁nap	-5040
▁torn	-5041
▁wheat	-5042
▁imping	-5043
▁Surgery	-5044
▁prednisone	-5045
20	-5046
At	-5047
last	-5048
▁Cld	-5049
neath	-5050
vered	-5051
......	-5052
▁raise	-5053
▁turning	-5054
▁functions	-5055
▁suspected	-5056
▁tt	-5057
▁300	-5058
▁dog	-5059
▁plain	-5060
▁individ	-5061
▁Antibiotics	-5062
▁osteoarthritis	-5063
ret	-5064
▁curable	-5065
▁gastroenteritis	-5066
men	-5067
met	-5068
umn	-5069
wee	-5070
▁haem	-5071
▁floss	-5072
▁electrolyte	-5073
orr	-5074
▁mis	-5075
▁ped	-5076
▁luck	-5077
▁swelled	-5078
ato	-5079
unk	-5080
▁mam	-5081
atures	-5082
▁essential	-5083
▁paralysis	-5084
▁knuck	-5085
▁prone	-5086
▁solve	-5087
▁double	-5088
▁PR	-5089
▁liquids	-5090
▁produce	-5091
▁grandson	-5092
▁complained	-5093
eg	-5094
hage	-5095
▁wide	-5096
▁colitis	-5097
▁avoiding	-5098
▁checking	-5099
!!!	-5100
▁36	-5101
▁En	-5102
▁Sc	-5103
acer	-5104
▁pulp	-5105
irubin	-5106
▁ortho	-5107
▁interfe	-5108
▁degeneration	-5109
▁eaten	-5110
▁swimming	-5111
viron	-5112
▁reli	-5113
▁palate	-5114
occ	-5115
care	-5116
rict	-5117
▁rarely	-5118
▁underneath	-5119
St	-5120
▁USG	-5121
▁email	-5122
▁vessel	-5123
▁induced	-5124
▁pulling	-5125
▁typical	-5126
▁den	-5127
▁applying	-5128
▁autoimmune	-5129
▁value	-5130
▁ground	-5131
▁epidural	-5132
bles	-5133
▁bub	-5134
▁exha	-5135
umption	-5136
roscopic	-5137
etirizine	-5138
▁jaundice	-5139
▁complication	-5140
Go	-5141
ier	-5142
▁hav	-5143
▁bile	-5144
▁individual	-5145
arin	-5146
▁ban	-5147
atives	-5148
▁colic	-5149
▁mental	-5150
▁somewhat	-5151
TIC	-5152
▁Hb	-5153
that	-5154
▁sft	-5155
▁mucosa	-5156
▁urinating	-5157
▁TENS	-5158
tebral	-5159
▁agree	-5160
▁motor	-5161
▁whats	-5162
▁extension	-5163
REAT	-5164
omas	-5165
▁250	-5166
▁Two	-5167
▁metal	-5168
Meanwle	-5169
▁source	-5170
▁benefit	-5171
▁nearest	-5172
▁lukewarm	-5173
▁considering	-5174
▁sul	-5175
▁2010	-5176
▁nost	-5177
▁worm	-5178
▁bites	-5179
▁atleast	-5180
▁neurotrop	-5181
▁expectancy	-5182
▁excruciating	-5183
▁tf	-5184
pple	-5185
vant	-5186
▁larger	-5187
▁smoker	-5188
▁locally	-5189
▁administ	-5190
ompression	-5191
ticoster	-5192
▁accompan	-5193
rate	-5194
▁inst	-5195
▁none	-5196
▁weekend	-5197
PS	-5198
rees	-5199
▁Lev	-5200
light	-5201
▁blockage	-5202
▁Ep	-5203
▁SG	-5204
▁yo	-5205
aste	-5206
▁jer	-5207
▁Cons	-5208
Can	-5209
amy	-5210
▁tg	-5211
▁ali	-5212
olism	-5213
▁WILL	-5214
▁inde	-5215
loxacin	-5216
vironment	-5217
▁Hospital	-5218
▁returned	-5219
▁Ju	-5220
well	-5221
aning	-5222
active	-5223
▁icing	-5224
▁buttock	-5225
ification	-5226
▁advanced	-5227
ednes	-5228
ement	-5229
itate	-5230
sions	-5231
▁stops	-5232
▁column	-5233
▁develo	-5234
▁enlargement	-5235
kn	-5236
▁fiber	-5237
▁affects	-5238
▁meantime	-5239
▁continuously	-5240
ait	-5241
lac	-5242
▁DIS	-5243
▁magn	-5244
▁rinse	-5245
▁sports	-5246
ednesday	-5247
▁bilious	-5248
▁rheumatoid	-5249
▁responsible	-5250
▁immunotherapy	-5251
iod	-5252
▁iv	-5253
odil	-5254
▁evid	-5255
vering	-5256
▁fight	-5257
▁shower	-5258
▁occurred	-5259
▁diagnostic	-5260
USE	-5261
▁cau	-5262
▁wakes	-5263
▁colored	-5264
▁esophagus	-5265
▁pulmonary	-5266
con	-5267
cope	-5268
▁More	-5269
▁YEAR	-5270
mentin	-5271
▁bright	-5272
▁inform	-5273
▁measure	-5274
▁expected	-5275
▁nauseous	-5276
▁stitches	-5277
▁law	-5278
▁creatinine	-5279
eps	-5280
adam	-5281
since	-5282
▁force	-5283
▁gingiv	-5284
▁cancers	-5285
▁delayed	-5286
▁fibroid	-5287
▁removing	-5288
These	-5289
▁fish	-5290
▁creams	-5291
▁previously	-5292
▁feb	-5293
itten	-5294
▁wind	-5295
▁noise	-5296
▁stimul	-5297
night	-5298
▁muscul	-5299
▁sneeze	-5300
▁cleared	-5301
▁Although	-5302
▁38	-5303
acing	-5304
▁secre	-5305
▁Ayurveda	-5306
▁OP	-5307
▁suit	-5308
butamol	-5309
▁seasonal	-5310
▁32	-5311
izer	-5312
legm	-5313
▁paras	-5314
▁Normal	-5315
▁diffuse	-5316
▁surgically	-5317
ipe	-5318
▁gut	-5319
▁ham	-5320
▁thats	-5321
▁ureter	-5322
▁instruction	-5323
ley	-5324
▁lat	-5325
uscular	-5326
▁accompanied	-5327
LEASE	-5328
▁role	-5329
vision	-5330
▁manif	-5331
▁visited	-5332
▁1.5	-5333
▁opp	-5334
▁Syrup	-5335
▁satis	-5336
▁actual	-5337
▁solved	-5338
▁anywhere	-5339
▁breastfe	-5340
▁environment	-5341
anse	-5342
▁bag	-5343
tirizine	-5344
▁foraminal	-5345
ata	-5346
▁miner	-5347
▁xrays	-5348
▁detect	-5349
▁landed	-5350
▁indentation	-5351
eng	-5352
▁WE	-5353
▁Still	-5354
▁grind	-5355
▁hungry	-5356
▁tonsil	-5357
hyroidism	-5358
▁develops	-5359
▁menstrual	-5360
ids	-5361
▁SE	-5362
▁tb	-5363
▁Sir	-5364
▁foul	-5365
▁Brain	-5366
▁Continue	-5367
▁Of	-5368
aken	-5369
▁reduction	-5370
5,	-5371
uary	-5372
▁toddler	-5373
may	-5374
▁GO	-5375
When	-5376
itus	-5377
▁Head	-5378
▁women	-5379
▁fermentation	-5380
CV	-5381
▁Amox	-5382
▁BACK	-5383
▁Tuesday	-5384
▁comment	-5385
▁sharing	-5386
▁Thursday	-5387
▁restless	-5388
iday	-5389
▁dig	-5390
▁words	-5391
▁vaccin	-5392
▁procedures	-5393
▁adj	-5394
idate	-5395
ooking	-5396
▁Visit	-5397
▁polyp	-5398
▁artery	-5399
▁Infection	-5400
▁fractures	-5401
UE	-5402
aly	-5403
▁37	-5404
▁anytime	-5405
▁ovaries	-5406
▁abnormalities	-5407
▁fixed	-5408
▁aneury	-5409
▁passes	-5410
▁sample	-5411
enerally	-5412
▁quantity	-5413
▁ligaments	-5414
▁psycatrist	-5415
▁osteoporosis	-5416
col	-5417
ups	-5418
▁hol	-5419
▁GERD	-5420
▁puss	-5421
▁elimin	-5422
▁intern	-5423
▁nd	-5424
utic	-5425
▁exer	-5426
▁moves	-5427
▁avoided	-5428
▁evidence	-5429
▁irritated	-5430
▁photograp	-5431
▁appearance	-5432
▁aug	-5433
▁bic	-5434
▁mos	-5435
▁sle	-5436
▁Sunday	-5437
▁pimple	-5438
▁simply	-5439
hylcobal	-5440
▁Another	-5441
▁lactose	-5442
▁urinate	-5443
▁supposed	-5444
▁character	-5445
▁heaviness	-5446
FTER	-5447
▁Feb	-5448
▁Sha	-5449
sitis	-5450
▁jump	-5451
▁scab	-5452
▁power	-5453
isation	-5454
▁whatever	-5455
▁profession	-5456
ov	-5457
nia	-5458
▁DR	-5459
▁Cer	-5460
▁pol	-5461
▁FROM	-5462
▁dead	-5463
should	-5464
▁palsy	-5465
▁toucng	-5466
▁smelling	-5467
went	-5468
▁spin	-5469
▁adverse	-5470
▁atrophy	-5471
▁incision	-5472
▁6.	-5473
haps	-5474
hesis	-5475
▁MEDIC	-5476
▁trigg	-5477
vertebral	-5478
▁meniscus	-5479
▁painless	-5480
▁connected	-5481
▁consumption	-5482
burn	-5483
▁pub	-5484
lusive	-5485
▁facet	-5486
omiting	-5487
▁biting	-5488
▁closed	-5489
rig	-5490
▁HCM	-5491
▁num	-5492
ounts	-5493
▁palm	-5494
tically	-5495
▁mucous	-5496
▁phlegm	-5497
▁gabapentin	-5498
▁substances	-5499
3)	-5500
DS	-5501
ems	-5502
lig	-5503
▁odd	-5504
Neuro	-5505
▁Tram	-5506
▁oily	-5507
imately	-5508
▁address	-5509
▁delivery	-5510
▁gynecologist	-5511
/5	-5512
▁Res	-5513
▁fed	-5514
▁pet	-5515
▁outer	-5516
ication	-5517
osacral	-5518
▁rectal	-5519
▁example	-5520
▁proceed	-5521
▁correction	-5522
▁consciousness	-5523
ths	-5524
hydr	-5525
leve	-5526
umed	-5527
▁derm	-5528
friend	-5529
gestive	-5530
▁rectum	-5531
▁blurred	-5532
▁enzymes	-5533
▁recovered	-5534
▁corticoster	-5535
1)	-5536
▁Ig	-5537
asma	-5538
ficial	-5539
▁awake	-5540
▁death	-5541
▁bleeds	-5542
▁psycho	-5543
▁relative	-5544
▁breakfast	-5545
dep	-5546
axis	-5547
uous	-5548
▁ace	-5549
▁sat	-5550
ogram	-5551
▁Skin	-5552
▁eluc	-5553
▁drained	-5554
▁intolerance	-5555
▁accumulation	-5556
Read	-5557
harm	-5558
▁Scan	-5559
▁clim	-5560
▁capsule	-5561
▁friends	-5562
▁Diabetes	-5563
▁direction	-5564
CTOR	-5565
liac	-5566
inter	-5567
▁fist	-5568
▁portion	-5569
oskeletal	-5570
▁thoracic	-5571
▁persisting	-5572
OC	-5573
dl	-5574
▁Sep	-5575
utrop	-5576
▁tabs	-5577
▁temple	-5578
▁uncontro	-5579
gy	-5580
zen	-5581
lyce	-5582
▁PET	-5583
▁emb	-5584
▁brid	-5585
▁urtic	-5586
ediatric	-5587
▁cldhood	-5588
▁cortisone	-5589
rib	-5590
icul	-5591
iral	-5592
omen	-5593
▁hae	-5594
▁meat	-5595
iciency	-5596
▁Anyway	-5597
▁aspect	-5598
oly	-5599
▁COM	-5600
▁fir	-5601
▁AFTER	-5602
▁holding	-5603
▁elucidate	-5604
▁specially	-5605
▁55	-5606
▁Te	-5607
body	-5608
your	-5609
dered	-5610
▁pock	-5611
hexidine	-5612
▁comb	-5613
▁pant	-5614
▁Orthop	-5615
▁disloc	-5616
▁absolutely	-5617
▁transplant	-5618
opep	-5619
▁Disc	-5620
▁methods	-5621
▁fainting	-5622
▁involving	-5623
▁indication	-5624
MG	-5625
IST	-5626
▁UR	-5627
temp	-5628
utum	-5629
▁alle	-5630
▁cuff	-5631
▁withd	-5632
▁venous	-5633
▁research	-5634
▁tramadol	-5635
▁IM	-5636
▁cow	-5637
▁WHAT	-5638
▁worms	-5639
▁electric	-5640
eds	-5641
max	-5642
enia	-5643
▁Oct	-5644
itted	-5645
▁onto	-5646
▁strict	-5647
▁denture	-5648
▁vaccine	-5649
ocetirizine	-5650
▁meningitis	-5651
ura	-5652
▁June	-5653
▁died	-5654
▁frontal	-5655
▁salivary	-5656
▁intensity	-5657
▁scientifically	-5658
▁adhe	-5659
ration	-5660
▁amounts	-5661
▁resting	-5662
pol	-5663
iate	-5664
▁aver	-5665
▁exce	-5666
▁brought	-5667
▁Tramadol	-5668
▁metabolic	-5669
▁poisoning	-5670
▁structures	-5671
▁neurotropic	-5672
yst	-5673
▁gre	-5674
▁wbc	-5675
apsed	-5676
avoid	-5677
▁Took	-5678
▁blot	-5679
tomach	-5680
▁sided	-5681
▁migrain	-5682
▁corrected	-5683
ablet	-5684
▁leuk	-5685
▁screw	-5686
▁DOCTOR	-5687
▁traumatic	-5688
AB	-5689
ION	-5690
▁SC	-5691
ioma	-5692
▁CRP	-5693
▁Red	-5694
▁Kumar	-5695
▁bloody	-5696
▁ischemic	-5697
ta	-5698
encies	-5699
icular	-5700
▁hamst	-5701
romycin	-5702
▁Saturday	-5703
▁contusion	-5704
▁discovered	-5705
hn	-5706
aren	-5707
▁strugg	-5708
▁incident	-5709
MRI	-5710
ilk	-5711
asty	-5712
▁til	-5713
spasm	-5714
oprazole	-5715
▁Symptoms	-5716
ART	-5717
Use	-5718
ctu	-5719
sec	-5720
cted	-5721
▁Dep	-5722
▁pla	-5723
▁tib	-5724
perid	-5725
▁Rest	-5726
▁drip	-5727
▁wise	-5728
▁excer	-5729
▁peptic	-5730
▁places	-5731
drox	-5732
▁equ	-5733
▁Went	-5734
▁faint	-5735
▁eosinop	-5736
▁divertic	-5737
▁orthopaedician	-5738
▁33	-5739
amic	-5740
imal	-5741
▁PSA	-5742
idney	-5743
rical	-5744
onitis	-5745
▁dairy	-5746
▁spondylitis	-5747
lder	-5748
oden	-5749
legra	-5750
▁hang	-5751
venous	-5752
▁displ	-5753
▁circum	-5754
▁Chronic	-5755
OG	-5756
▁MR	-5757
ired	-5758
▁ALSO	-5759
▁Make	-5760
▁nail	-5761
▁grown	-5762
▁morpne	-5763
▁thrush	-5764
▁paining	-5765
tron	-5766
▁Inc	-5767
umbar	-5768
▁July	-5769
formin	-5770
▁computer	-5771
▁features	-5772
▁um	-5773
▁3-5	-5774
▁Vit	-5775
▁dest	-5776
▁speedy	-5777
▁stated	-5778
▁Swelling	-5779
▁structure	-5780
We	-5781
▁Sh	-5782
KING	-5783
enior	-5784
ectious	-5785
▁clothes	-5786
▁contain	-5787
urab	-5788
▁God	-5789
▁Rep	-5790
▁emo	-5791
apeutic	-5792
▁granul	-5793
▁planned	-5794
▁bilirubin	-5795
▁cetirizine	-5796
dik	-5797
oups	-5798
▁Mal	-5799
▁beat	-5800
▁calm	-5801
▁April	-5802
▁Lymph	-5803
▁finds	-5804
▁molars	-5805
▁suffers	-5806
soc	-5807
oper	-5808
actic	-5809
utter	-5810
▁Mild	-5811
▁immo	-5812
▁rough	-5813
▁pollen	-5814
▁session	-5815
▁clotting	-5816
amp	-5817
▁fil	-5818
▁ANTI	-5819
▁prick	-5820
▁tting	-5821
▁irritable	-5822
▁antibodies	-5823
▁tips	-5824
▁squee	-5825
General	-5826
▁missed	-5827
▁uterine	-5828
▁indicative	-5829
▁physically	-5830
2,	-5831
▁31	-5832
course	-5833
consult	-5834
▁lymphn	-5835
▁Internal	-5836
▁Consultant	-5837
▁production	-5838
▁indigestion	-5839
▁photographs	-5840
▁Sit	-5841
liative	-5842
▁impact	-5843
▁visual	-5844
▁replaced	-5845
▁intervention	-5846
▁pancreatitis	-5847
ays	-5848
▁QU	-5849
roxen	-5850
▁LIKE	-5851
▁Otherwise	-5852
▁Physiotherapy	-5853
".	-5854
isp	-5855
▁Typ	-5856
▁cran	-5857
▁Health	-5858
▁anyway	-5859
▁static	-5860
▁Maintain	-5861
▁recovering	-5862
▁tap	-5863
▁allevi	-5864
▁promin	-5865
▁bothering	-5866
.?	-5867
va	-5868
told	-5869
▁gra	-5870
asone	-5871
epile	-5872
▁TEST	-5873
▁ended	-5874
▁pulmonologist	-5875
oral	-5876
▁cot	-5877
▁fun	-5878
Apply	-5879
umbness	-5880
▁cartil	-5881
▁scream	-5882
▁Doppler	-5883
▁boyfriend	-5884
▁sclerosis	-5885
▁nutritional	-5886
KS	-5887
oz	-5888
ECT	-5889
ars	-5890
▁Very	-5891
fungal	-5892
▁threw	-5893
▁candid	-5894
▁parent	-5895
OST	-5896
azep	-5897
toms	-5898
asive	-5899
▁labor	-5900
▁menop	-5901
▁money	-5902
▁airway	-5903
▁herbal	-5904
ida	-5905
atiopep	-5906
▁fevers	-5907
▁protru	-5908
▁sputum	-5909
aneously	-5910
▁apparent	-5911
▁capsules	-5912
▁instructions	-5913
LC	-5914
▁memb	-5915
▁Monte	-5916
▁advil	-5917
▁cross	-5918
▁serve	-5919
ressing	-5920
▁assume	-5921
▁defect	-5922
▁fluctu	-5923
▁reduces	-5924
▁sprained	-5925
▁migraines	-5926
▁worsening	-5927
▁Diclofenac	-5928
▁aggressive	-5929
▁monitoring	-5930
▁musculoskeletal	-5931
ok	-5932
vix	-5933
▁Ok	-5934
▁TM	-5935
▁sym	-5936
gular	-5937
▁limp	-5938
ocaine	-5939
▁basic	-5940
▁obser	-5941
▁plant	-5942
genital	-5943
▁tremor	-5944
▁ordered	-5945
▁mobility	-5946
▁hepatitis	-5947
▁urologist	-5948
▁thrombosis	-5949
6,	-5950
▁Bru	-5951
▁junk	-5952
▁reass	-5953
▁lumbosacral	-5954
AND	-5955
ser	-5956
mmer	-5957
ober	-5958
▁die	-5959
▁date	-5960
▁search	-5961
cg	-5962
With	-5963
acial	-5964
▁tons	-5965
▁marks	-5966
▁paste	-5967
▁throw	-5968
hylaxis	-5969
▁Before	-5970
▁fairly	-5971
▁dentures	-5972
▁basically	-5973
MAL	-5974
ito	-5975
▁34	-5976
▁cup	-5977
ember	-5978
▁rays	-5979
▁wheeze	-5980
▁degrees	-5981
▁Allergic	-5982
▁probiotics	-5983
▁antiallergic	-5984
Al	-5985
ady	-5986
Pain	-5987
otid	-5988
term	-5989
▁fro	-5990
gered	-5991
▁flap	-5992
▁mold	-5993
Family	-5994
ractor	-5995
▁endoc	-5996
▁covered	-5997
▁dropped	-5998
▁percent	-5999
▁progression	-6000
gem	-6001
oxide	-6002
▁stem	-6003
▁terms	-6004
▁Stomach	-6005
▁consume	-6006
▁overall	-6007
▁According	-6008
▁lethargic	-6009
▁anesthetic	-6010
▁aspiration	-6011
Dor	-6012
lon	-6013
▁NOW	-6014
▁TSH	-6015
▁leak	-6016
▁Advil	-6017
▁Gurab	-6018
▁burns	-6019
▁Gurabard	-6020
▁homeopathy	-6021
oss	-6022
rim	-6023
tib	-6024
▁mes	-6025
Other	-6026
▁bent	-6027
▁harmful	-6028
▁svering	-6029
▁complaint	-6030
/4	-6031
▁bp	-6032
zith	-6033
bably	-6034
▁prep	-6035
▁symp	-6036
▁Second	-6037
▁herpes	-6038
▁touched	-6039
▁compared	-6040
▁neuralgia	-6041
sol	-6042
Best	-6043
▁Pls	-6044
▁afford	-6045
▁correl	-6046
▁aneurysm	-6047
▁personal	-6048
▁sickness	-6049
odg	-6050
ulti	-6051
▁bud	-6052
Dorina	-6053
▁Drink	-6054
▁bridge	-6055
▁reflex	-6056
▁section	-6057
▁numerous	-6058
ffe	-6059
mit	-6060
even	-6061
esium	-6062
ngles	-6063
▁dysp	-6064
▁agents	-6065
▁Benadryl	-6066
▁external	-6067
▁followup	-6068
▁planning	-6069
▁withdraw	-6070
▁approximately	-6071
No	-6072
TC	-6073
▁ye	-6074
razy	-6075
rodu	-6076
work	-6077
▁RCT	-6078
▁pusng	-6079
▁umbil	-6080
▁beneficial	-6081
▁methylcobal	-6082
▁GurabardGeneral	-6083
hys	-6084
▁Om	-6085
omoe	-6086
resp	-6087
▁cru	-6088
reated	-6089
bilitation	-6090
enterologist	-6091
ATE	-6092
hee	-6093
num	-6094
esopha	-6095
▁proton	-6096
▁January	-6097
▁missing	-6098
▁adenoids	-6099
oke	-6100
rex	-6101
born	-6102
entle	-6103
▁mood	-6104
harmac	-6105
▁lunch	-6106
▁scrot	-6107
▁travel	-6108
izz	-6109
▁HER	-6110
▁slept	-6111
▁style	-6112
Neurology	-6113
▁certainly	-6114
▁confusion	-6115
▁everytime	-6116
▁producing	-6117
▁exercising	-6118
arc	-6119
Keep	-6120
▁items	-6121
oscopic	-6122
▁orally	-6123
▁signal	-6124
%.	-6125
▁AG	-6126
ival	-6127
▁crazy	-6128
▁elder	-6129
▁turns	-6130
rential	-6131
▁revealed	-6132
▁yellowish	-6133
ka	-6134
▁39	-6135
order	-6136
▁2012	-6137
▁Sudr	-6138
▁drive	-6139
▁folic	-6140
▁kinda	-6141
▁relaxed	-6142
▁stronger	-6143
▁Sal	-6144
▁bus	-6145
aired	-6146
▁NEED	-6147
▁anno	-6148
▁Urine	-6149
▁extend	-6150
▁stability	-6151
mur	-6152
▁Ma	-6153
dine	-6154
imer	-6155
▁Here	-6156
▁hypog	-6157
▁revert	-6158
▁decayed	-6159
▁Wednesday	-6160
▁answering	-6161
▁vomitting	-6162
▁consistent	-6163
Yes	-6164
opa	-6165
ners	-6166
upus	-6167
▁SOME	-6168
▁belt	-6169
▁loud	-6170
▁myel	-6171
▁BLOOD	-6172
▁indent	-6173
▁plasma	-6174
peridone	-6175
▁ruptured	-6176
▁conclusion	-6177
▁dermatitis	-6178
▁functional	-6179
▁responding	-6180
aser	-6181
ster	-6182
▁info	-6183
▁vital	-6184
▁dealing	-6185
VT	-6186
OUT	-6187
URE	-6188
▁Ond	-6189
▁tdo	-6190
▁Diff	-6191
necess	-6192
▁exist	-6193
▁Aceclofenac	-6194
▁hypothyroidism	-6195
▁52	-6196
rile	-6197
▁fav	-6198
droxy	-6199
ocyte	-6200
▁drank	-6201
▁obtain	-6202
▁assessed	-6203
▁triggered	-6204
sc	-6205
dish	-6206
vate	-6207
▁ens	-6208
ochond	-6209
▁covering	-6210
▁excluded	-6211
▁cartilage	-6212
gel	-6213
nea	-6214
▁PT	-6215
Once	-6216
amil	-6217
▁Inj	-6218
▁MIL	-6219
▁dom	-6220
tosis	-6221
▁TREAT	-6222
▁Allerg	-6223
abl	-6224
lear	-6225
▁leng	-6226
▁toxic	-6227
▁involves	-6228
▁alternate	-6229
▁explained	-6230
▁7.	-6231
umes	-6232
▁bear	-6233
▁MONTH	-6234
▁chocol	-6235
▁ceiling	-6236
▁lasting	-6237
▁suppose	-6238
mptomatic	-6239
▁balanced	-6240
▁congenital	-6241
▁psychological	-6242
py	-6243
▁tha	-6244
▁isnt	-6245
▁odor	-6246
▁centre	-6247
▁convul	-6248
▁unnecess	-6249
▁worrying	-6250
▁rheumatologist	-6251
Us	-6252
rog	-6253
angh	-6254
▁Imp	-6255
▁enhan	-6256
▁honey	-6257
▁average	-6258
▁bearing	-6259
▁bursitis	-6260
▁calculus	-6261
11	-6262
Drs	-6263
dent	-6264
▁fre	-6265
anghvi	-6266
ansetron	-6267
▁knowing	-6268
▁workout	-6269
ire	-6270
▁95	-6271
many	-6272
▁blu	-6273
▁cys	-6274
farin	-6275
▁Left	-6276
▁appt	-6277
▁load	-6278
hardik	-6279
idence	-6280
▁Muscle	-6281
▁caught	-6282
▁burping	-6283
▁greatly	-6284
Drsanghvi	-6285
▁reactive	-6286
▁impingement	-6287
Drsanghvihardik	-6288
AG	-6289
IDE	-6290
usted	-6291
▁dots	-6292
odgkin	-6293
▁final	-6294
▁decompression	-6295
gm	-6296
ris	-6297
allic	-6298
iasis	-6299
ylori	-6300
▁nuts	-6301
▁Hyper	-6302
▁offer	-6303
▁psych	-6304
▁tears	-6305
▁Meftal	-6306
▁anemic	-6307
▁values	-6308
▁masturb	-6309
▁rotator	-6310
ORE	-6311
UST	-6312
leb	-6313
▁De	-6314
Most	-6315
mature	-6316
▁ready	-6317
ination	-6318
▁Feeling	-6319
▁palliative	-6320
▁burst	-6321
▁surely	-6322
▁breasts	-6323
cut	-6324
▁).	-6325
▁Gr	-6326
▁raw	-6327
▁Test	-6328
▁VERY	-6329
amycin	-6330
▁carpal	-6331
▁fallen	-6332
▁screening	-6333
EM	-6334
rea	-6335
▁PL	-6336
▁Dise	-6337
▁MILK	-6338
▁older	-6339
▁Senior	-6340
▁bowels	-6341
▁winter	-6342
▁perhaps	-6343
▁typically	-6344
▁breastfeeding	-6345
▁rehabilitation	-6346
ANT	-6347
IES	-6348
yond	-6349
▁THAN	-6350
▁fiss	-6351
▁separ	-6352
▁maximum	-6353
bo	-6354
▁Mot	-6355
▁blades	-6356
epileptic	-6357
▁phenomen	-6358
▁probiotic	-6359
.6.	-6360
▁Ear	-6361
▁SIN	-6362
▁bat	-6363
weeks	-6364
▁worth	-6365
▁sacral	-6366
Maintain	-6367
hydration	-6368
▁pressing	-6369
▁resolved	-6370
▁metastatic	-6371
ju	-6372
▁Our	-6373
▁aer	-6374
ushed	-6375
▁2011	-6376
apical	-6377
urring	-6378
▁quadr	-6379
▁canker	-6380
▁orange	-6381
itations	-6382
▁Allergy	-6383
▁antacids	-6384
▁strongly	-6385
▁perfectly	-6386
▁compressed	-6387
IND	-6388
got	-6389
▁(2	-6390
▁hr	-6391
Notng	-6392
sient	-6393
▁March	-6394
▁lining	-6395
▁genital	-6396
▁grinding	-6397
CA	-6398
Par	-6399
abs	-6400
▁Int	-6401
▁Ray	-6402
ender	-6403
▁Such	-6404
▁flav	-6405
▁soap	-6406
▁learn	-6407
▁shunt	-6408
▁vomits	-6409
▁benadryl	-6410
▁metabolism	-6411
NAC	-6412
▁py	-6413
icor	-6414
▁125	-6415
▁bye	-6416
▁awle	-6417
▁falls	-6418
▁seven	-6419
▁quality	-6420
▁adjacent	-6421
▁hamstring	-6422
▁infectious	-6423
▁supplementation	-6424
ULT	-6425
com	-6426
cys	-6427
▁PP	-6428
ulty	-6429
▁Ver	-6430
▁sil	-6431
start	-6432
▁General	-6433
▁immobil	-6434
▁ayurvedic	-6435
▁behaviour	-6436
▁afterwards	-6437
HD	-6438
KG	-6439
-12	-6440
▁??	-6441
▁HB	-6442
rise	-6443
could	-6444
▁Been	-6445
▁sized	-6446
▁testicle	-6447
▁assistance	-6448
▁penicillin	-6449
rip	-6450
▁72	-6451
▁Br	-6452
acity	-6453
▁agent	-6454
▁clearly	-6455
▁crucial	-6456
▁urticaria	-6457
▁bronchodil	-6458
nee	-6459
From	-6460
▁10-1	-6461
doctor	-6462
ributed	-6463
▁PROBLE	-6464
▁corner	-6465
▁tckening	-6466
▁concerning	-6467
▁thoroughly	-6468
IA	-6469
4-5	-6470
itic	-6471
▁4-7	-6472
▁WOR	-6473
tidase	-6474
▁forte	-6475
ligence	-6476
▁beyond	-6477
▁plaque	-6478
▁remaining	-6479
▁hemorrhage	-6480
▁levocetirizine	-6481
NS	-6482
lla	-6483
0000	-6484
Ultr	-6485
▁SHE	-6486
▁Sorry	-6487
▁accept	-6488
▁nodule	-6489
ological	-6490
▁nostril	-6491
▁severely	-6492
▁cellulitis	-6493
▁localizing	-6494
.(	-6495
-20	-6496
▁42	-6497
▁Tr	-6498
edist	-6499
otomy	-6500
▁antic	-6501
▁cries	-6502
▁Follow	-6503
▁meaning	-6504
▁professional	-6505
OSE	-6506
ipro	-6507
omal	-6508
▁12.	-6509
▁uncons	-6510
daughter	-6511
ratiopep	-6512
▁pharmac	-6513
▁eosinopl	-6514
▁temporal	-6515
▁underwent	-6516
▁haemoglobin	-6517
pass	-6518
blood	-6519
▁Chest	-6520
▁YEARS	-6521
▁Disease	-6522
▁objects	-6523
▁metallic	-6524
▁strained	-6525
▁suitable	-6526
▁digestive	-6527
-6	-6528
Sub	-6529
▁ib	-6530
cold	-6531
ours	-6532
peri	-6533
rogen	-6534
ensive	-6535
▁accur	-6536
▁annular	-6537
motherapy	-6538
▁limiting	-6539
▁schedule	-6540
▁remission	-6541
7,	-6542
Th	-6543
▁Fe	-6544
idal	-6545
▁WEE	-6546
▁kgs	-6547
▁mix	-6548
amous	-6549
ecort	-6550
▁Done	-6551
ocking	-6552
▁spong	-6553
▁abcess	-6554
▁attend	-6555
▁partic	-6556
▁gaining	-6557
▁pollution	-6558
▁cropractor	-6559
zhe	-6560
▁fa	-6561
▁BEEN	-6562
▁Wish	-6563
▁vary	-6564
▁phase	-6565
tenance	-6566
▁PLEASE	-6567
▁sngles	-6568
▁pathological	-6569
▁au	-6570
▁stren	-6571
▁extrem	-6572
▁havent	-6573
▁nipple	-6574
▁sternum	-6575
▁asthalin	-6576
▁antispasm	-6577
▁differenti	-6578
cip	-6579
exp	-6580
▁99	-6581
▁na	-6582
Wish	-6583
▁APP	-6584
▁poo	-6585
▁spi	-6586
metic	-6587
▁CONT	-6588
▁nurs	-6589
▁among	-6590
▁broad	-6591
▁hypotension	-6592
cl	-6593
ICE	-6594
▁KN	-6595
▁pm	-6596
ofen	-6597
▁cus	-6598
lycer	-6599
▁Root	-6600
▁rush	-6601
Kindly	-6602
▁fried	-6603
▁caries	-6604
▁weighs	-6605
▁ability	-6606
▁fibrosis	-6607
▁puncture	-6608
▁occurring	-6609
▁continuing	-6610
▁gingivitis	-6611
▁pediatrics	-6612
▁functioning	-6613
PV	-6614
abad	-6615
amox	-6616
enic	-6617
▁unt	-6618
▁mand	-6619
icious	-6620
▁fatig	-6621
▁reocc	-6622
▁varic	-6623
▁yeast	-6624
algesic	-6625
▁compon	-6626
▁length	-6627
▁tonsill	-6628
▁Syndrome	-6629
ymptomatic	-6630
olo	-6631
uten	-6632
▁3.5	-6633
▁alb	-6634
urgical	-6635
▁lipoma	-6636
▁potato	-6637
▁neutrop	-6638
▁annoying	-6639
WW	-6640
sh	-6641
ELL	-6642
ONG	-6643
hew	-6644
from	-6645
imen	-6646
▁firm	-6647
▁spit	-6648
tially	-6649
▁bever	-6650
▁funny	-6651
▁insuff	-6652
▁married	-6653
▁Complete	-6654
▁diligence	-6655
▁omeprazole	-6656
▁chlorhexidine	-6657
AA	-6658
SE	-6659
ALL	-6660
▁(3	-6661
▁Bi	-6662
umin	-6663
▁102	-6664
▁Rad	-6665
▁WCH	-6666
ausea	-6667
essor	-6668
▁coma	-6669
▁entr	-6670
▁summer	-6671
▁scrotum	-6672
▁feelings	-6673
▁disturbed	-6674
▁compressing	-6675
▁TMJ	-6676
mples	-6677
ulated	-6678
▁stent	-6679
▁program	-6680
▁rubbing	-6681
▁resulted	-6682
▁uncommon	-6683
▁swallowed	-6684
▁intercourse	-6685
▁understanding	-6686
ror	-6687
gged	-6688
▁Fib	-6689
▁TIME	-6690
▁sept	-6691
▁eight	-6692
▁flutter	-6693
▁infestation	-6694
▁administered	-6695
5/	-6696
tw	-6697
▁trip	-6698
▁papill	-6699
▁smells	-6700
▁choosing	-6701
▁relevant	-6702
▁noticeable	-6703
▁contraction	-6704
▁deficiencies	-6705
Its	-6706
rah	-6707
ranial	-6708
rednis	-6709
▁THERE	-6710
▁Upper	-6711
▁Using	-6712
▁spont	-6713
lycemia	-6714
▁attemp	-6715
▁wouldn	-6716
▁twisted	-6717
omuscular	-6718
▁informed	-6719
▁clue	-6720
▁eyel	-6721
▁inqu	-6722
▁mole	-6723
▁caffe	-6724
▁Motrin	-6725
▁scratch	-6726
3-	-6727
IF	-6728
nx	-6729
cha	-6730
dia	-6731
fib	-6732
▁199	-6733
▁tit	-6734
▁tur	-6735
ulate	-6736
▁mont	-6737
▁neph	-6738
ctually	-6739
adequate	-6740
▁anaemia	-6741
▁younger	-6742
▁minerals	-6743
▁alleviate	-6744
▁elevation	-6745
▁infective	-6746
▁vaccination	-6747
GG	-6748
ca	-6749
oy	-6750
idd	-6751
▁AP	-6752
▁BR	-6753
iced	-6754
about	-6755
lation	-6756
geminal	-6757
▁banana	-6758
urrently	-6759
▁Patient	-6760
▁Regular	-6761
▁reddish	-6762
▁excision	-6763
▁operative	-6764
▁hematologist	-6765
Im	-6766
RIN	-6767
lom	-6768
▁LC	-6769
▁UP	-6770
olac	-6771
▁cit	-6772
osite	-6773
▁infar	-6774
▁lapar	-6775
▁invasive	-6776
▁identified	-6777
HY	-6778
LA	-6779
▁amp	-6780
▁fus	-6781
▁rab	-6782
ences	-6783
oured	-6784
▁edge	-6785
▁palms	-6786
▁sache	-6787
▁tgave	-6788
▁coughs	-6789
▁distress	-6790
▁troubles	-6791
▁maintenance	-6792
▁preparation	-6793
SF	-6794
▁43	-6795
▁Gi	-6796
aphy	-6797
icle	-6798
ococ	-6799
▁bang	-6800
▁hall	-6801
▁pate	-6802
etings	-6803
▁coccy	-6804
▁popped	-6805
▁splint	-6806
▁absence	-6807
▁message	-6808
▁observe	-6809
iculopathy	-6810
▁decreases	-6811
▁magnesium	-6812
▁connection	-6813
4)	-6814
pls	-6815
▁OD	-6816
ATER	-6817
▁mus	-6818
▁arch	-6819
▁clav	-6820
▁marg	-6821
▁Liver	-6822
▁addic	-6823
▁apple	-6824
ressure	-6825
▁gentle	-6826
▁images	-6827
▁packet	-6828
formation	-6829
▁Cervical	-6830
▁decongestants	-6831
ques	-6832
▁wks	-6833
Assoc	-6834
▁stick	-6835
▁curious	-6836
▁dietary	-6837
▁plastic	-6838
▁eruption	-6839
▁stressed	-6840
lip	-6841
und	-6842
▁II	-6843
▁ax	-6844
hand	-6845
▁Age	-6846
▁Like	-6847
apment	-6848
reased	-6849
▁danger	-6850
▁altered	-6851
▁mechanism	-6852
▁54	-6853
▁58	-6854
opic	-6855
▁DVT	-6856
▁Gyn	-6857
known	-6858
llent	-6859
ories	-6860
uinal	-6861
▁bout	-6862
ibular	-6863
▁refus	-6864
section	-6865
▁establ	-6866
▁explan	-6867
▁sexual	-6868
▁homeopatc	-6869
▁obviously	-6870
▁retention	-6871
▁definitive	-6872
▁(5	-6873
▁8.	-6874
▁bel	-6875
▁eng	-6876
ailed	-6877
lants	-6878
▁cervix	-6879
▁pocket	-6880
owsiness	-6881
▁ALLERGY	-6882
▁fatigued	-6883
▁osteophy	-6884
▁overcome	-6885
▁meditation	-6886
▁therapeutic	-6887
▁1)	-6888
▁INF	-6889
▁pil	-6890
bling	-6891
sensi	-6892
▁Stre	-6893
▁coag	-6894
▁Thave	-6895
▁adren	-6896
▁defic	-6897
▁Tablet	-6898
▁pincng	-6899
▁tingly	-6900
▁cerelac	-6901
▁elderly	-6902
▁improper	-6903
▁quadrant	-6904
▁reported	-6905
▁speaking	-6906
▁epileptic	-6907
▁professor	-6908
▁supervision	-6909
arb	-6910
etc	-6911
thy	-6912
▁62	-6913
▁BY	-6914
ears	-6915
alore	-6916
▁WHEN	-6917
▁gang	-6918
▁gyna	-6919
tember	-6920
▁angio	-6921
▁frust	-6922
▁paint	-6923
▁phosp	-6924
gnitive	-6925
▁medial	-6926
ocetrizine	-6927
▁prominent	-6928
▁Prescribed	-6929
▁describing	-6930
▁hospitalized	-6931
:30	-6932
zole	-6933
▁cos	-6934
ously	-6935
aiting	-6936
graphy	-6937
usually	-6938
▁orthopedist	-6939
ratiopeptidase	-6940
▁53	-6941
▁gp	-6942
▁MAY	-6943
▁Ton	-6944
▁tor	-6945
ators	-6946
going	-6947
▁eggs	-6948
▁index	-6949
▁limit	-6950
▁mself	-6951
▁cotton	-6952
▁ensure	-6953
▁safely	-6954
▁flashes	-6955
▁knuckle	-6956
Associate	-6957
▁difficul	-6958
ands	-6959
sure	-6960
▁5-6	-6961
Medic	-6962
▁Home	-6963
▁tsay	-6964
▁bouts	-6965
▁Lately	-6966
▁ignore	-6967
▁December	-6968
▁attached	-6969
▁interferential	-6970
aj	-6971
▁%	-6972
ACH	-6973
▁DE	-6974
eces	-6975
rica	-6976
worm	-6977
▁ket	-6978
lower	-6979
quito	-6980
uitary	-6981
▁tubes	-6982
▁careDr	-6983
▁differential	-6984
▁44	-6985
redi	-6986
▁Flu	-6987
▁INR	-6988
▁bike	-6989
▁insp	-6990
cephal	-6991
Usually	-6992
▁picked	-6993
specific	-6994
▁improves	-6995
▁Generally	-6996
▁salbutamol	-6997
▁granddaughter	-6998
▁Bl	-6999
cage	-7000
▁Hep	-7001
▁sug	-7002
reast	-7003
▁SGPT	-7004
▁align	-7005
▁flare	-7006
depress	-7007
▁Advice	-7008
▁calling	-7009
▁rapidly	-7010
▁deposits	-7011
▁hormones	-7012
▁depressed	-7013
▁intravenous	-7014
-7	-7015
olf	-7016
▁Sa	-7017
ames	-7018
▁lit	-7019
▁mye	-7020
▁pox	-7021
▁diag	-7022
▁ttold	-7023
▁Though	-7024
▁crocin	-7025
ervation	-7026
▁content	-7027
▁beverages	-7028
ITI	-7029
nut	-7030
tin	-7031
▁56	-7032
▁oo	-7033
atho	-7034
runk	-7035
▁URL	-7036
▁ans	-7037
edema	-7038
▁FNAC	-7039
▁sust	-7040
Subrah	-7041
manyam	-7042
▁Nerve	-7043
▁focal	-7044
▁bedtime	-7045
▁comprom	-7046
▁hanging	-7047
▁malaria	-7048
▁sensory	-7049
▁cerebell	-7050
Subrahmanyam	-7051
ams	-7052
plz	-7053
fact	-7054
▁OUT	-7055
▁pea	-7056
▁DAYS	-7057
▁debr	-7058
▁urge	-7059
atosis	-7060
ycodone	-7061
▁states	-7062
▁outcome	-7063
▁anaesthe	-7064
▁capacity	-7065
▁inbitors	-7066
▁intervertebral	-7067
UN	-7068
DCH	-7069
don	-7070
▁pu	-7071
▁10.	-7072
▁11.	-7073
▁Cor	-7074
▁EKG	-7075
▁uti	-7076
▁via	-7077
▁trst	-7078
▁catch	-7079
▁August	-7080
▁guided	-7081
▁hoping	-7082
▁stuffy	-7083
mologist	-7084
▁noticing	-7085
▁stinging	-7086
DCHAssociate	-7087
▁generalized	-7088
OPD	-7089
▁ups	-7090
rated	-7091
▁liter	-7092
▁dissol	-7093
▁screws	-7094
▁sleeps	-7095
▁mornings	-7096
▁observed	-7097
▁difficulties	-7098
enz	-7099
▁46	-7100
rely	-7101
▁vib	-7102
logic	-7103
▁Dont	-7104
▁pool	-7105
▁tmay	-7106
aution	-7107
▁humid	-7108
▁macne	-7109
ossible	-7110
▁obstru	-7111
▁polyps	-7112
▁threat	-7113
▁Swollen	-7114
▁herself	-7115
▁instant	-7116
▁calamine	-7117
▁phenomenon	-7118
lev	-7119
▁:-	-7120
hoids	-7121
oring	-7122
xture	-7123
▁beta	-7124
▁diar	-7125
▁hemo	-7126
▁passage	-7127
▁cavities	-7128
▁TR	-7129
▁rt	-7130
VING	-7131
oose	-7132
vast	-7133
▁OLD	-7134
▁PCR	-7135
▁Lumbar	-7136
▁hypert	-7137
▁smokes	-7138
▁dryness	-7139
▁inability	-7140
▁testicles	-7141
▁entrapment	-7142
▁resistance	-7143
▁lightheadedness	-7144
ket	-7145
pre	-7146
!!!!	-7147
ALLY	-7148
cked	-7149
orin	-7150
toin	-7151
cancer	-7152
ipital	-7153
ortion	-7154
▁heals	-7155
▁acidic	-7156
▁switch	-7157
▁cracked	-7158
ofenadine	-7159
sometimes	-7160
▁infusion	-7161
▁somewhere	-7162
▁irritating	-7163
Let	-7164
▁wh	-7165
orso	-7166
otic	-7167
uted	-7168
▁SUR	-7169
▁cef	-7170
▁mir	-7171
moral	-7172
▁achy	-7173
▁tdon	-7174
▁plays	-7175
ational	-7176
derabad	-7177
ultiple	-7178
▁flight	-7179
▁pushed	-7180
▁regain	-7181
▁watcng	-7182
▁ribcage	-7183
▁visiting	-7184
▁Gabapentin	-7185
▁vegetarian	-7186
▁concentration	-7187
12,	-7188
den	-7189
ocet	-7190
alled	-7191
▁blow	-7192
▁foll	-7193
inally	-7194
titute	-7195
▁risks	-7196
acement	-7197
▁extended	-7198
▁parkinson	-7199
▁technique	-7200
Due	-7201
ped	-7202
▁DA	-7203
▁101	-7204
auses	-7205
ooked	-7206
▁FOOD	-7207
▁Iron	-7208
▁Nove	-7209
▁teac	-7210
▁Along	-7211
▁sticky	-7212
▁October	-7213
▁country	-7214
▁pimples	-7215
▁hesitate	-7216
▁antifungal	-7217
▁periapical	-7218
uch	-7219
▁Wor	-7220
▁monday	-7221
▁breaths	-7222
▁inhaled	-7223
▁tendency	-7224
rinologist	-7225
▁digestion	-7226
▁heartburn	-7227
▁menopause	-7228
▁partially	-7229
▁explanation	-7230
▁preparations	-7231
▁requiredTake	-7232
▁multivitamins	-7233
▁neuromuscular	-7234
onut	-7235
ript	-7236
▁esr	-7237
encing	-7238
▁OTHER	-7239
▁Stage	-7240
▁gluten	-7241
▁toothp	-7242
▁ingredi	-7243
infection	-7244
▁attributed	-7245
▁suggesting	-7246
oeb	-7247
unc	-7248
appy	-7249
ocar	-7250
▁kick	-7251
▁sett	-7252
alysis	-7253
▁tfound	-7254
tipation	-7255
▁minimum	-7256
▁rupture	-7257
▁seriously	-7258
▁esophageal	-7259
▁concentrate	-7260
▁purposePlease	-7261
By	-7262
elly	-7263
▁Pul	-7264
▁glo	-7265
▁spr	-7266
Fever	-7267
itory	-7268
▁scale	-7269
▁sweet	-7270
▁swells	-7271
acranial	-7272
vascular	-7273
▁released	-7274
▁excellent	-7275
▁Ondansetron	-7276
ert	-7277
hrs	-7278
▁49	-7279
hama	-7280
▁ITP	-7281
▁som	-7282
▁tet	-7283
▁love	-7284
▁porrid	-7285
▁tcould	-7286
--------	-7287
▁persons	-7288
indamycin	-7289
▁specifically	-7290
ora	-7291
avel	-7292
aves	-7293
▁OPG	-7294
Blood	-7295
stric	-7296
▁Cough	-7297
▁image	-7298
tibular	-7299
▁Better	-7300
▁SHOULD	-7301
▁cycles	-7302
▁stable	-7303
▁periodon	-7304
▁traction	-7305
▁neuropatc	-7306
▁microscopy	-7307
▁relaxation	-7308
▁disturbances	-7309
▁Unfortunately	-7310
/7	-7311
asy	-7312
anut	-7313
gain	-7314
left	-7315
▁sup	-7316
urred	-7317
▁Care	-7318
▁resid	-7319
▁counse	-7320
▁gained	-7321
▁handle	-7322
izziness	-7323
▁myeloma	-7324
▁mosquito	-7325
▁scratcng	-7326
▁preferably	-7327
▁controlling	-7328
LO	-7329
▁AR	-7330
▁Plus	-7331
▁loos	-7332
▁lemon	-7333
onoscopy	-7334
▁November	-7335
▁cracking	-7336
▁triggers	-7337
▁exhausted	-7338
▁consultant	-7339
Try	-7340
hyth	-7341
itin	-7342
wear	-7343
▁mum	-7344
▁tru	-7345
▁india	-7346
▁lupus	-7347
▁stays	-7348
▁tibia	-7349
▁gently	-7350
▁motrin	-7351
▁couldnt	-7352
▁plantar	-7353
▁deterior	-7354
▁potential	-7355
nai	-7356
ares	-7357
eral	-7358
▁100%	-7359
▁acne	-7360
▁hosp	-7361
tility	-7362
▁safer	-7363
▁shake	-7364
▁Spinal	-7365
▁bubble	-7366
▁elbows	-7367
▁allergist	-7368
▁electrical	-7369
▁precaution	-7370
UD	-7371
onal	-7372
▁OTC	-7373
▁TIA	-7374
▁bac	-7375
▁curd	-7376
▁START	-7377
▁anxious	-7378
▁manifest	-7379
▁Orthopedic	-7380
▁drowsiness	-7381
▁diverticulitis	-7382
LI	-7383
MA	-7384
▁ect	-7385
arter	-7386
▁frag	-7387
▁shes	-7388
codone	-7389
initis	-7390
▁soups	-7391
▁spoon	-7392
▁symtoms	-7393
▁unknown	-7394
▁laboratory	-7395
/3	-7396
▁41	-7397
Anti	-7398
asse	-7399
▁COU	-7400
▁sulf	-7401
▁swab	-7402
▁RIGHT	-7403
▁unexp	-7404
linical	-7405
▁implants	-7406
▁umbilical	-7407
▁unrelated	-7408
Paracetamol	-7409
▁accidentally	-7410
-8	-7411
ERS	-7412
Each	-7413
Have	-7414
▁Tub	-7415
istic	-7416
▁CONS	-7417
▁urea	-7418
▁Forum	-7419
▁apnea	-7420
▁terri	-7421
▁torso	-7422
etailed	-7423
itially	-7424
▁dengue	-7425
▁peroxide	-7426
▁sponging	-7427
▁pituitary	-7428
▁Amoxicillin	-7429
rt	-7430
▁=	-7431
▁2)	-7432
rupt	-7433
▁cri	-7434
▁102.	-7435
kindly	-7436
▁CAUSE	-7437
▁Taken	-7438
▁valve	-7439
▁volume	-7440
▁weekly	-7441
▁harmless	-7442
▁cognitive	-7443
▁significantly	-7444
▁unnecessarily	-7445
▁Cro	-7446
meric	-7447
oming	-7448
▁Feel	-7449
ngitis	-7450
▁tennis	-7451
Continue	-7452
reetings	-7453
▁potable	-7454
▁receive	-7455
▁betadine	-7456
▁caffeine	-7457
▁spondylo	-7458
▁tolerate	-7459
▁Chemotherapy	-7460
▁palpitations	-7461
nk	-7462
▁Bet	-7463
brush	-7464
▁COPD	-7465
▁Seiz	-7466
▁save	-7467
▁semi	-7468
▁soda	-7469
▁click	-7470
itidine	-7471
uncture	-7472
▁meftal	-7473
▁smelly	-7474
▁sugars	-7475
▁toward	-7476
▁forming	-7477
▁appearing	-7478
▁receiving	-7479
▁impression	-7480
Qu	-7481
eness	-7482
hennai	-7483
certain	-7484
▁Experi	-7485
▁consequ	-7486
▁numbing	-7487
▁twisting	-7488
▁correctly	-7489
▁localized	-7490
▁prevention	-7491
▁prophylaxis	-7492
▁temporarily	-7493
50	-7494
lod	-7495
▁ms	-7496
noid	-7497
usng	-7498
▁arr	-7499
anted	-7500
fever	-7501
▁2013	-7502
▁jaws	-7503
ogenic	-7504
▁forms	-7505
▁Kidney	-7506
▁arteries	-7507
▁effusion	-7508
▁standard	-7509
VEN	-7510
▁47	-7511
▁TW	-7512
▁wk	-7513
such	-7514
▁Ant	-7515
▁Cha	-7516
▁Val	-7517
▁nas	-7518
thous	-7519
ticed	-7520
ercise	-7521
iscuss	-7522
riceps	-7523
▁lumbo	-7524
▁duoden	-7525
▁Calcium	-7526
▁partner	-7527
▁Emergency	-7528
▁Endoscopy	-7529
▁granuloma	-7530
▁decreasing	-7531
▁permanently	-7532
Ex	-7533
/20	-7534
vor	-7535
was	-7536
▁la	-7537
▁103	-7538
domen	-7539
▁ADHD	-7540
▁inha	-7541
mented	-7542
▁Spine	-7543
iration	-7544
▁limits	-7545
▁leaving	-7546
▁successful	-7547
▁observation	-7548
▁unfortunately	-7549
Pro	-7550
nac	-7551
nov	-7552
tec	-7553
▁CO	-7554
▁Non	-7555
▁Tri	-7556
▁tsf	-7557
▁insi	-7558
▁slip	-7559
▁shaky	-7560
▁track	-7561
▁encour	-7562
acterial	-7563
▁Rheumat	-7564
▁benefits	-7565
▁occipital	-7566
zithromycin	-7567
▁straighten	-7568
eat	-7569
rocy	-7570
▁vig	-7571
cardi	-7572
lytic	-7573
riage	-7574
▁miles	-7575
▁navel	-7576
▁failed	-7577
▁friday	-7578
▁cutting	-7579
▁introdu	-7580
▁transient	-7581
▁techniques	-7582
▁corticosteroids	-7583
CP	-7584
PR	-7585
aby	-7586
lim	-7587
▁jo	-7588
▁wt	-7589
▁cop	-7590
▁101.	-7591
▁FEEL	-7592
▁conj	-7593
▁door	-7594
▁mine	-7595
▁NIGHT	-7596
requent	-7597
ricular	-7598
▁bypass	-7599
▁inject	-7600
▁varies	-7601
▁Looking	-7602
▁newborn	-7603
▁student	-7604
▁varicose	-7605
ocarcinoma	-7606
halmologist	-7607
▁aggravated	-7608
▁dehydrated	-7609
▁mentioning	-7610
▁interaction	-7611
▁nebulization	-7612
TE	-7613
Don	-7614
imp	-7615
,000	-7616
ario	-7617
rous	-7618
▁LOW	-7619
▁Wte	-7620
ocardi	-7621
▁Chlor	-7622
▁Until	-7623
▁border	-7624
▁deform	-7625
▁tmight	-7626
▁worsens	-7627
esophageal	-7628
▁antispasmodic	-7629
▁hb	-7630
▁pig	-7631
elvic	-7632
vable	-7633
▁lean	-7634
▁recon	-7635
▁febrile	-7636
▁meanwle	-7637
▁moistur	-7638
▁pressed	-7639
▁Allergist	-7640
▁thrombocy	-7641
▁tonsillitis	-7642
▁BM	-7643
▁hv	-7644
keep	-7645
▁dra	-7646
▁gar	-7647
xiety	-7648
▁tast	-7649
ameter	-7650
▁Hence	-7651
▁bread	-7652
▁melan	-7653
odontic	-7654
▁NSAIDs	-7655
▁excerc	-7656
▁heating	-7657
▁ongoing	-7658
▁consuming	-7659
▁endometrial	-7660
PH	-7661
ARY	-7662
TER	-7663
ari	-7664
▁god	-7665
lysis	-7666
▁Preg	-7667
▁cong	-7668
▁conce	-7669
▁distal	-7670
▁unwell	-7671
▁glasses	-7672
▁draining	-7673
▁incontin	-7674
▁spinning	-7675
▁squamous	-7676
▁consistency	-7677
ns	-7678
pha	-7679
moid	-7680
▁Add	-7681
▁soc	-7682
aster	-7683
ledge	-7684
velop	-7685
▁Serum	-7686
▁dusts	-7687
▁horse	-7688
artment	-7689
▁mildly	-7690
▁fissure	-7691
▁intracranial	-7692
▁presentation	-7693
dil	-7694
adic	-7695
▁dic	-7696
▁opt	-7697
ritin	-7698
▁alter	-7699
▁Asthalin	-7700
▁inguinal	-7701
▁lethargy	-7702
▁resolves	-7703
▁spotting	-7704
▁warfarin	-7705
▁disturbance	-7706
▁radiculopathy	-7707
▁SW	-7708
▁cc	-7709
aked	-7710
swer	-7711
▁CSF	-7712
▁Hyp	-7713
chlor	-7714
ixime	-7715
▁Cure	-7716
losing	-7717
▁Small	-7718
▁grows	-7719
▁wasng	-7720
leeding	-7721
▁calves	-7722
▁peanut	-7723
▁smooth	-7724
▁inquiry	-7725
▁teacher	-7726
▁positions	-7727
SI	-7728
eck	-7729
hra	-7730
phen	-7731
rete	-7732
▁6-8	-7733
▁dot	-7734
▁jan	-7735
acerb	-7736
▁soup	-7737
ECTION	-7738
ention	-7739
.......	-7740
angioma	-7741
▁adviced	-7742
▁loosing	-7743
▁postural	-7744
▁exclusive	-7745
▁intervals	-7746
▁nutritious	-7747
▁progressively	-7748
DL	-7749
▁q	-7750
▁Ur	-7751
aret	-7752
haden	-7753
▁arise	-7754
▁cystic	-7755
▁Probably	-7756
▁Question	-7757
▁cetrizine	-7758
▁emotional	-7759
▁straining	-7760
▁relatively	-7761
,,,	-7762
ATI	-7763
alk	-7764
eff	-7765
mas	-7766
▁Abs	-7767
▁ery	-7768
▁2009	-7769
hether	-7770
▁hasnt	-7771
▁world	-7772
▁commun	-7773
▁Thyroid	-7774
▁reached	-7775
▁tendons	-7776
amination	-7777
▁painfull	-7778
▁urgently	-7779
▁Currently	-7780
▁Diagnosis	-7781
▁mammogram	-7782
OUND	-7783
arms	-7784
only	-7785
▁Eat	-7786
▁Hot	-7787
▁Iam	-7788
▁Min	-7789
▁Occ	-7790
▁cig	-7791
▁fly	-7792
▁acts	-7793
▁roll	-7794
▁Later	-7795
▁layer	-7796
▁tells	-7797
assemia	-7798
▁breaking	-7799
▁chemicals	-7800
▁premature	-7801
▁developmental	-7802
CER	-7803
▁68	-7804
▁nep	-7805
▁Oste	-7806
plasia	-7807
▁ABOUT	-7808
▁human	-7809
▁laser	-7810
▁perit	-7811
osition	-7812
▁Mother	-7813
iddiness	-7814
▁greater	-7815
▁peeling	-7816
▁dressing	-7817
▁obtained	-7818
gan	-7819
lav	-7820
ager	-7821
▁Sto	-7822
▁dex	-7823
▁	-7824
e	-7825
t	-7826
a	-7827
o	-7828
n	-7829
i	-7830
s	-7831
r	-7832
l	-7833
d	-7834
h	-7835
u	-7836
c	-7837
m	-7838
y	-7839
g	-7840
p	-7841
f	-7842
.	-7843
b	-7844
w	-7845
v	-7846
k	-7847
I	-7848
,	-7849
T	-7850
A	-7851
S	-7852
?	-7853
x	-7854
M	-7855
E	-7856
H	-7857
W	-7858
C	-7859
D	-7860
1	-7861
R	-7862
-	-7863
N	-7864
2	-7865
O	-7866
P	-7867
q	-7868
0	-7869
j	-7870
Y	-7871
z	-7872
L	-7873
B	-7874
5	-7875
3	-7876
)	-7877
'	-7878
(	-7879
F	-7880
4	-7881
G	-7882
U	-7883
/	-7884
6	-7885
7	-7886
V	-7887
8	-7888
&	-7889
K	-7890
:	-7891
9	-7892
!	-7893
X	-7894
J	-7895
"	-7896
%	-7897
Z	-7898
+	-7899
Q	-7900
>	-7901
=	-7902
#	-7903
_	-7904
\	-7905
<	-7906
é	-7907
^	-7908
●	-7909
|	-7910
ı	-7911
μ	-7912
×	-7913
â	-7914
®	-7915
à	-7916
è	-7917
	-7918
£	-7919
¦	-7920
ö	-7921
»	-7922
á	-7923
√	-7924
。	-7925
ç	-7926
í	-7927
č	-7928
̈	-7929
ा	-7930
️	-7931
¬	-7932
É	-7933
ë	-7934
İ	-7935
š	-7936
̊	-7937
व	-7938
≥	-7939
◾	-7940
☆	-7941
	-7942
	-7943
¢	-7944
·	-7945
¿	-7946
Â	-7947
Ã	-7948
ä	-7949
ì	-7950
ï	-7951
ó	-7952
ü	-7953
ť	-7954
α	-7955
،	-7956
र	-7957
स	-7958
्	-7959
	-7960
	-7961
À	-7962
Ç	-7963
Î	-7964
ê	-7965
ñ	-7966
ô	-7967
ù	-7968
û	-7969
ÿ	-7970
ā	-7971
ě	-7972
ĺ	-7973
ŕ	-7974
ź	-7975
͵	-7976
ं	-7977
द	-7978
न	-7979
भ	-7980
ക	-7981
ത	-7982
ര	-7983
്	-7984
‐	-7985
‚	-7986
€	-7987
℞	-7988
□	-7989
☹	-7990
☺	-7991
✅	-7992
